memory_initialization_radix=10;
memory_initialization_vector=
-59,
-94,
-107,
-21,
-36,
-20,
2,
-54,
-104,
-63,
-42,
-79,
-76,
35,
34,
-69,
-30,
-4,
56,
-48,
77,
63,
114,
34,
65,
4,
-16,
51,
16,
24,
30,
2,
39,
67,
112,
-46,
82,
-7,
36,
77,
56,
35,
77,
87,
10,
84,
86,
25,
-61,
-100,
-6,
57,
92,
23,
63,
22,
-45,
-48,
-89,
-64,
6,
-36,
-128,
-82,
-103,
75,
10,
-43,
-69,
-109,
54,
37,
-15,
50,
29,
-57,
-10,
-91,
-55,
-36,
6,
22,
-52,
75,
-3,
58,
80,
83,
94,
28,
3,
80,
85,
-45,
-8,
-117,
-49,
-63,
17,
-96,
13,
-26,
-87,
-49,
-107,
50,
76,
59,
59,
-23,
10,
5,
127,
11,
-66,
-1,
90,
14,
11,
-106,
34,
-69,
-84,
-5,
-35,
58,
69,
-22,
92,
16,
63,
72,
111,
-9,
-47,
-41,
52,
32,
2,
-17,
87,
53,
-25,
52,
6,
39,
17,
-41,
-125,
-90;
