memory_initialization_radix=10;
memory_initialization_vector=
-14,
-51,
-63,
-61,
-63,
12,
26,
49,
-2,
-19,
96,
97,
100,
64,
51,
29,
60,
46,
48,
-1,
-26,
-45,
8,
28,
58,
23,
-14,
34,
44,
34,
-16,
-36,
-4,
-3,
65,
-11,
3,
-11,
-12,
70,
56,
81,
69,
25,
32,
25,
42,
18,
32,
41,
-3,
4,
-57,
-27,
-99,
53,
60,
34,
28,
-83,
73,
36,
63,
1,
-43,
-42,
-30,
-21,
-9,
-46,
8,
36,
27,
17,
11,
-21,
28,
-16,
38,
56,
-62,
-55,
-110,
-75,
3,
-17,
-66,
-72,
-24,
-20,
25,
63,
53,
50,
25,
3,
32,
-20,
-27,
13,
18,
31,
3,
21,
77,
-9,
-43,
-5,
-51,
2,
6,
-31,
-31,
-43,
-6,
31,
63,
66,
52,
31,
34,
45,
8,
6,
30,
-9,
21,
47,
51,
30,
-1,
-22,
25,
21,
31,
-42,
-7,
-37,
-33,
21,
36,
37,
66,
41,
48,
28,
51,
71,
67,
23,
-22,
-19,
-2,
9,
43,
1,
41,
65,
72,
41,
-32,
38,
53,
31,
-40,
-39,
-49,
-3,
-77,
-80,
-57,
-33,
-24,
-91,
-31,
53,
-27,
2,
-12,
-29,
33,
1,
-30,
-24,
19,
37,
3,
23,
5,
9,
-10,
32,
53,
38,
0,
3,
-9,
-7,
-15,
-19,
-8,
53,
17,
52,
82,
56,
93,
64,
23,
9,
41,
-14,
-9,
-15,
20,
15,
-40,
-24,
29,
50,
2,
-46,
-30,
75,
77,
19,
28,
35,
-9,
-13,
21,
-26,
-25,
-14,
7,
46,
24,
4,
89,
84,
41,
66,
68,
68,
-28,
-26,
38,
31,
18,
-45,
37,
34,
9,
9,
-11,
0,
1,
-31,
-65,
-30,
59,
10,
-10,
7,
62,
16,
12,
63,
34,
65,
17,
-4,
40,
86,
34,
36,
24,
9,
-18,
-31,
69,
9,
-10,
-45,
-30,
60,
16,
-14,
-27,
52,
72,
56,
46,
76,
55,
-7,
47,
45,
36,
-22,
8,
43,
67,
67,
10,
41,
88,
116,
63,
48,
44,
91,
19,
29,
100,
-27,
3,
-43,
6,
8,
-60,
-17,
22,
20,
24,
11,
15,
6,
42,
12,
24,
12,
-16,
-31,
8,
59,
23,
46,
19,
30,
47,
59,
72,
9,
43,
45,
9,
33,
16,
94,
14,
29,
22,
-7,
-54,
17,
-2,
60,
28,
58,
19,
-69,
-51,
-34,
-6,
-42,
-62,
-66,
-103,
-81,
77,
13,
25,
-35,
-65,
28,
2,
-7,
-39,
-39,
-48,
-53,
-12,
-5,
-62,
39,
48,
71,
47,
45,
76,
56,
82,
49,
34,
-21,
-86,
-37,
-22,
19,
36,
9,
-34,
-8,
-4,
8,
-38,
-26,
-19,
-16,
53,
28,
29,
71,
9,
91,
56,
50,
34,
74,
28,
-24,
4,
-6,
45,
35,
-1,
13,
19,
-11,
21,
18,
-19,
-26,
12,
20,
42,
6,
-7,
7,
93,
48,
81,
43,
52,
69,
41,
30,
62,
47,
89,
84,
77,
55,
72,
87,
126,
82,
69,
86,
52,
18,
-46,
-13,
-25,
-28,
-19,
-69,
-53,
-11,
-7,
62,
10,
37,
72,
-19,
13,
-14,
-30,
-34,
-10,
45,
13,
-6,
50,
36,
30,
41,
71,
56,
41,
62,
10,
43,
41,
-35,
5,
2,
-21,
-49,
42,
76,
66,
71,
61,
7,
-68,
-69,
24,
-27,
-68,
-117,
-128,
-100,
-82,
23,
16,
10,
35,
-13,
68,
56,
14,
35,
-42,
-56,
-69,
-40,
-37,
-59,
-31,
7,
18,
26,
14,
67,
80,
127,
114,
59,
29,
-30,
16,
-11,
3,
3,
2,
-55,
-17,
-30,
9,
-8,
-61,
-15,
12,
11,
-37,
23,
52,
-3,
44,
64,
89,
73,
89,
45,
-26,
-1,
10,
-26,
15,
-57,
-1,
-34,
-9,
1,
-47,
-31,
-13,
17,
-6,
-7,
23,
-8,
29,
37,
49,
62,
74,
67,
52,
59,
61,
64,
62,
-7,
-20,
-26,
-18,
-14,
-28,
-35,
-25,
9,
20,
8,
-26,
-13,
-5,
-34,
13,
-28,
-54,
-45,
-11,
38,
56,
37,
-43,
-49,
30,
6,
5,
-8,
-57,
-3,
45,
45,
57,
57,
23,
39,
40,
36,
37,
17,
-28,
1,
14,
67,
-10,
-46,
-23,
16,
45,
27,
-46,
-22,
3,
27,
25,
-46,
-16,
10,
-6,
13,
-36,
-65,
-32,
-46,
77,
-7,
-81,
-35,
24,
84,
87,
-36,
-13,
32,
35,
54,
-18,
3,
19,
-55,
-10,
9,
11,
52,
-16,
13,
13,
28,
37,
-55,
-34,
23,
71,
33,
-26,
-56,
9,
8,
66,
15,
-60,
-7,
42,
16,
-9,
-23,
31,
35,
10,
-4,
-12,
54,
35,
37,
-68,
-21,
22,
28,
29,
6,
-39,
-58,
15,
5,
24,
-23,
-23,
-9,
-7,
30,
-3,
58,
46,
50,
32,
35,
55,
15,
58,
-15,
-12,
21,
7,
31,
-10,
-27,
-14,
23,
38,
10,
-32,
-21,
15,
-11,
-7,
10,
45,
26,
-19,
3,
1,
31,
10,
75,
-48,
-31,
9,
-9,
60,
-9,
-25,
-55,
-34,
-25,
-19,
-32,
-6,
-9,
4,
18,
-13,
23,
-18,
-37,
-6,
-8,
-14,
-9,
5,
58,
18,
3,
0,
6,
-9,
48,
29,
70,
60,
-25,
7,
43,
26,
67,
30,
77,
70,
64,
68,
-15,
39,
36,
67,
64,
-22,
14,
-38,
-17,
-40,
33,
-2,
32,
-24,
-41,
33,
26,
-35,
-15,
-61,
32,
6,
-18,
-12,
-5,
34,
39,
-30,
-44,
-22,
67,
39,
23,
-3,
20,
7,
1,
25,
14,
5,
26,
-12,
-25,
-11,
33,
3,
13,
-17,
-35,
-42,
65,
48,
-15,
-3,
-27,
21,
-4,
40,
28,
56,
-3,
45,
14,
-5,
3,
5,
-9,
-3,
33,
12,
26,
-38,
-38,
5,
-30,
10,
-34,
-5,
-4,
-32,
27,
46,
6,
-19,
-3,
7,
58,
59,
28,
49,
11,
25,
47,
23,
49,
-20,
12,
-26,
-14,
14,
-72,
-20,
-7,
-72,
24,
-21,
-11,
-80,
-19,
52,
33,
-32,
-83,
7,
60,
64,
-15,
-32,
10,
15,
26,
15,
-2,
-18,
-43,
48,
49,
41,
14,
-49,
10,
28,
6,
-21,
-12,
15,
83,
52,
-7,
-48,
45,
49,
-11,
2,
-54,
-15,
1,
-9,
59,
36,
-19,
-36,
5,
81,
28,
-8,
-49,
61,
103,
16,
-19,
-52,
68,
101,
23,
0,
-29,
53,
81,
65,
86,
31,
51,
2,
-5,
27,
40,
109,
-24,
-23,
18,
64,
41,
-15,
-27,
-14,
39,
60,
-19,
-15,
23,
14,
35,
-41,
-48,
61,
39,
34,
14,
-7,
65,
1,
98,
45,
-20,
35,
37,
94,
-9,
-27,
18,
24,
31,
-4,
-12,
-25,
2,
13,
-13,
-36,
35,
16,
10,
10,
2,
36,
11,
41,
16,
-17,
53,
-6,
42,
24,
-45,
0,
28,
66,
23,
1,
1,
62,
35,
25,
-52,
5,
-21,
24,
96,
95,
7,
-3,
47,
94,
78,
56,
92,
108,
71,
39,
101,
97,
16,
2,
10,
65,
-12,
-72,
-42,
-48,
33,
9,
16,
5,
-46,
5,
15,
16,
-37,
-16,
-33,
-29,
6,
-17,
15,
-13,
35,
60,
6,
42,
19,
64,
58,
20,
42,
4,
55,
69,
35,
37,
21,
38,
17,
-13,
0,
64,
-1,
-32,
-35,
87,
-39,
-63,
-48,
-39,
10,
-35,
-43,
-18,
-43,
-37,
-4,
3,
-23,
15,
-45,
39,
-21,
-34,
9,
35,
-49,
-5,
-22,
40,
-8,
-1,
49,
66,
55,
37,
74,
90,
76,
26,
50,
29,
-12,
22,
-36,
-58,
10,
-13,
5,
-6,
-14,
24,
-52,
-12,
-9,
35,
-26,
9,
38,
25,
70,
57,
42,
57,
53,
36,
34,
-14,
-17,
-34,
-25,
8,
39,
-28,
-32,
-34,
15,
7,
-28,
21,
19,
-31,
3,
21,
17,
10,
9,
61,
57,
38,
54,
-35,
-17,
30,
71,
40,
19,
52,
39,
39,
56,
70,
108,
44,
63,
29,
-27,
1,
39,
64,
37,
-55,
-76,
-12,
54,
68,
0,
26,
-5,
-10,
-51,
-8,
-35,
-41,
-43,
-26,
-21,
-13,
-5,
-2,
5,
53,
50,
5,
9,
4,
35,
61,
56,
59,
-12,
-3,
19,
66,
-5,
-23,
71,
60,
2,
-41,
-11,
63,
83,
54,
33,
-33,
-23,
-15,
60,
67,
33,
-51,
-63,
11,
12,
39,
69,
1,
5,
25,
14,
-6,
-29,
-39,
-15,
-3,
11,
0,
-15,
0,
20,
70,
55,
78,
-21,
-36,
20,
45,
55,
42,
9,
-4,
35,
-2,
-18,
-30,
44,
12,
-16,
-14,
-18,
36,
-20,
18,
20,
-21,
69,
33,
43,
30,
-6,
15,
34,
49,
59,
-9,
37,
10,
-23,
-8,
-39,
6,
9,
12,
-21,
-3,
-19,
-6,
2,
5,
-5,
32,
52,
13,
-21,
-16,
76,
71,
38,
48,
4,
-4,
-3,
-23,
-32,
-6,
-40,
24,
-23,
19,
14,
34,
78,
40,
51,
40,
89,
65,
62,
42,
44,
58,
17,
-43,
-33,
-61,
8,
18,
41,
55,
2,
34,
10,
29,
-21,
-30,
34,
10,
-12,
-41,
-36,
-4,
-22,
-7,
-19,
-10,
15,
-16,
43,
23,
58,
-20,
-51,
-63,
-19,
-17,
84,
14,
45,
67,
45,
99,
4,
48,
55,
76,
40,
-37,
-47,
13,
-18,
-25,
-61,
4,
-38,
-45,
31,
45,
19,
41,
29,
-50,
-37,
27,
39,
14,
-48,
-5,
-2,
-31,
5,
-30,
11,
49,
75,
60,
6,
38,
79,
40,
59,
18,
12,
62,
61,
31,
13,
5,
28,
-1,
-11,
-11,
-44,
-21,
13,
10,
-42,
-12,
40,
11,
58,
-12,
7,
42,
23,
39,
56,
-4,
14,
18,
20,
35,
3,
24,
26,
-33,
-34,
-35,
-48,
-38,
-19,
-56,
-60,
-35,
-40,
18,
-22,
-4,
16,
30,
40,
-26,
-43,
-35,
-3,
52,
-7,
9,
-78,
-68,
-12,
-51,
-64,
-43,
-83,
-81,
7,
44,
59,
21,
8,
26,
48,
-15,
3,
-3,
24,
-7,
6,
43,
35,
-3,
59,
18,
46,
23,
16,
-11,
-20,
-7,
11,
-40,
-39,
-51,
-24,
8,
6,
-30,
-16,
-45,
-61,
33,
-17,
-19,
37,
66,
-15,
-45,
-52,
-82,
-42,
-11,
38,
23,
3,
-72,
12,
107,
87,
61,
35,
1,
3,
16,
32,
38,
7,
-2,
60,
51,
-1,
23,
65,
40,
72,
86,
15,
43,
-9,
-19,
-8,
-36,
-53,
-47,
-62,
1,
-12,
-8,
6,
14,
-8,
20,
1,
53,
15,
6,
13,
55,
58,
65,
69,
6,
2,
5,
-17,
-7,
-12,
-5,
-56,
-21,
-18,
-36,
-30,
41,
29,
-15,
30,
9,
1,
-4,
10,
3,
54,
40,
8,
27,
-2,
-10,
-22,
14,
39,
-19,
-48,
-11,
-15,
-17,
-19,
-8,
-44,
-31,
-66,
55,
26,
36,
-12,
-17,
13,
7,
73,
46,
-39,
-13,
13,
113,
19,
-53,
-5,
80,
91,
-34,
-67,
13,
69,
12,
-38,
-17,
30,
-15,
-45,
-9,
10,
1,
-30,
-44,
26,
37,
-9,
5,
16,
30,
61,
-56,
-17,
-2,
28,
40,
-27,
38,
12,
68,
27,
48,
50,
-63,
-64,
-28,
80,
92,
-1,
-99,
-70,
73,
69,
-98,
-73,
-67,
61,
-10,
-63,
9,
-53,
5,
-16,
-36,
23,
-35,
30,
21,
26,
33,
35,
49,
3,
-39,
62,
53,
35,
-65,
-23,
67,
71,
-24,
-57,
40,
82,
54,
-33,
9,
59,
79,
53,
23,
-28,
-10,
-14,
-7,
22,
30,
-15,
-31,
21,
53,
-27,
-26,
2,
30,
-17,
-50,
11,
41,
36,
-12,
-2,
16,
83,
45,
-40,
-43,
-34,
-12,
19,
-7,
28,
-49,
-37,
16,
50,
1,
-51,
-3,
54,
-26,
-61,
-20,
42,
38,
-52,
-26,
-9,
61,
44,
1,
29,
-7,
20,
-1,
-2,
-21,
-34,
-29,
-29,
-11,
-6,
-17,
-32,
21,
-46,
-29,
-41,
-15,
58,
-20,
2,
36,
61,
8,
42,
40,
48,
10,
15,
18,
-37,
18,
43,
51,
19,
39,
65,
56,
28,
72,
39,
56,
46,
33,
2,
1,
1,
-3,
0,
30,
-4,
-64,
1,
73,
74,
2,
-7,
-40,
14,
-55,
-26,
3,
-1,
52,
-26,
22,
16,
4,
40,
98,
33,
-12,
-57,
-19,
-25,
13,
7,
25,
35,
15,
-40,
-9,
17,
38,
15,
6,
19,
9,
27,
64,
21,
34,
-8,
-29,
-49,
-67,
-78,
27,
14,
45,
43,
41,
33,
38,
30,
27,
-33,
54,
48,
18,
24,
22,
50,
41,
28,
23,
46,
-12,
32,
-22,
-10,
3,
-2,
-14,
-1,
-11,
42,
46,
28,
39,
13,
13,
7,
26,
69,
25,
17,
82,
51,
83,
64,
77,
53,
16,
28,
12,
19,
-5,
34,
38,
52,
13,
32,
37,
-23,
19,
24,
31,
2,
-21,
-82,
-14,
-37,
-36,
15,
8,
15,
-5,
-43,
20,
84,
75,
-12,
-43,
-28,
1,
-2,
-23,
21,
58,
33,
-4,
-4,
62,
55,
16,
20,
5,
32,
4,
14,
9,
32,
26,
21,
-6,
44,
13,
-5,
-10,
-9,
38,
11,
-26,
-67,
-24,
-35,
-34,
-86,
14,
-36,
-24,
-54,
-78,
55,
25,
-31,
-7,
19,
54,
22,
-50,
-21,
12,
-33,
-12,
-21,
-60,
27,
28,
50,
8,
6,
34,
-9,
-16,
-24,
-17,
61,
-64,
-19,
-20,
29,
49,
-48,
-4,
22,
18,
-44,
-19,
29,
-5,
-8,
18,
65,
45,
80,
13,
56,
7,
60,
59,
24,
34,
-50,
-49,
12,
-3,
53,
-25,
-48,
-11,
23,
35,
27,
-17,
-11,
-22,
37,
-3,
55,
63,
61,
41,
36,
75,
79,
68,
68,
-11,
22,
3,
24,
63,
-30,
7,
45,
1,
24,
-35,
-73,
-102,
-75,
-57,
-32,
-121,
-79,
20,
-5,
-72,
-23,
63,
79,
37,
20,
2,
46,
12,
0,
24,
-5,
-5,
-6,
-91,
59,
15,
20,
18,
19,
41,
-34,
-8,
-20,
-16,
6,
-49,
-46,
-23,
-27,
24,
-34,
1,
18,
49,
38,
44,
31,
66,
84,
-38,
35,
-9,
-58,
-10,
-8,
67,
65,
62,
-32,
36,
86,
67,
19,
-84,
12,
11,
15,
-62,
-51,
-6,
-27,
-40,
-34,
4,
81,
77,
27,
67,
38,
75,
30,
-1,
-26,
-20,
37,
-18,
-41,
-64,
-25,
-16,
14,
-14,
15,
108,
16,
29,
48,
34,
95,
20,
39,
60,
19,
52,
82,
40,
19,
0,
0,
67,
12,
-62,
-76,
-44,
11,
13,
-17,
-22,
15,
-6,
3,
56,
50,
92,
43,
15,
66,
53,
53,
39,
26,
-4,
-13,
-2,
17,
0,
-12,
-37,
-55,
-24,
-10,
-16,
-7,
-19,
36,
-12,
-1,
44,
74,
-1,
17,
36,
75,
45,
26,
54,
47,
-25,
-23,
25,
96,
37,
-31,
32,
37,
103,
19,
-21,
88,
38,
57,
3,
15,
65,
-15,
-6,
25,
35,
50,
-17,
50,
40,
74,
38,
36,
73,
79,
5,
7,
33,
83,
31,
36,
-18,
-19,
23,
53,
21,
-17,
24,
11,
-64,
-4,
77,
65,
45,
-122,
55,
100,
64,
-41,
-114,
120,
91,
63,
-67,
-80,
68,
13,
-3,
-86,
-43,
5,
6,
-10,
-67,
-22,
-1,
-22,
-17,
-111,
41,
44,
-33,
-82,
-77,
34,
-18,
-71,
-98,
-44,
9,
-48,
-43,
-64,
-18,
13,
-28,
-15,
15,
-30,
-1,
50,
44,
39,
-19,
-6,
78,
17,
-15,
-82,
33,
88,
-52,
0,
-19,
56,
67,
-12,
-25,
-26,
29,
22,
29,
-13,
12,
8,
47,
11,
23,
17,
19,
85,
31,
9,
39,
81,
50,
45,
7,
17,
68,
65,
36,
9,
30,
56,
55,
47;
