memory_initialization_radix=10;
memory_initialization_vector=
51,
-2,
-51,
-28,
12,
-5,
1,
-11,
-47,
54,
-50,
6,
-17,
-9,
-17,
-58,
-12,
-12,
-36,
-39,
26,
2,
-80,
35,
15,
-23,
24,
-70,
-60,
37,
-30,
-18,
25,
29,
53,
-17,
-10,
-36,
-29,
-24,
-32,
9,
-37,
-7,
-57,
9,
61,
-37,
-9,
-47,
-50,
-60,
33,
37,
-6,
15,
-27,
2,
-73,
37,
89,
-7,
37,
33,
-28,
-45,
-33,
-46,
36,
10,
-68,
-61,
5,
-56,
-56,
-73,
59,
-58,
39,
-22,
-4,
18,
-17,
-83,
13,
56,
-7,
-47,
-45,
22,
40,
-43,
-3,
34,
-43,
43,
-63,
-19,
21,
43,
76,
21,
6,
-52,
49,
31,
0,
2,
-19,
40,
7,
13,
76,
37,
9,
22,
-18,
50,
-26,
5,
58,
50,
5,
45,
-23,
-51,
79,
42,
54,
-37,
29,
4,
62,
51,
42,
61,
5,
30,
37,
28,
71,
49,
76,
30,
24,
62,
55,
65,
5,
-59,
-20,
-30,
-24,
-54,
-16,
-9,
19,
-73,
45,
-7,
-36,
28,
17,
-9,
38,
-13,
-64,
-90,
-83,
6,
-13,
23,
-64,
23,
-65,
-68,
59,
-26,
29,
18,
-50,
-1,
1,
17,
-5,
-33,
16,
58,
-18,
-57,
41,
23,
35,
19,
14,
22,
26,
-14,
28,
-17,
44,
-12,
-40,
41,
7,
34,
62,
-4,
-41,
11,
-55,
14,
34,
-62,
-22,
-52,
22,
-6,
-38,
-66,
2,
-34,
45,
-6,
21,
11,
-68,
-7,
40,
27,
-9,
31,
0,
-39,
-41,
-21,
79,
22,
-16,
29,
-26,
6,
-58,
-13,
18,
-60,
-27,
14,
42,
-59,
21,
-31,
67,
39,
59,
26,
10,
-23,
9,
-22,
-13,
52,
-31,
32,
17,
28,
71,
57,
-39,
-26,
-18,
-43,
-46,
-36,
13,
64,
-42,
-5,
38,
12,
-19,
55,
-30,
45,
-6,
21,
-20,
-62,
-19,
0,
-14,
-30,
-49,
-85,
47,
-23,
-14,
-73,
-61,
-18,
-18,
-23,
-78,
-10,
-46,
11,
-44,
-8,
66,
-43,
57,
12,
10,
-18,
74,
-74,
55,
-1,
13,
9,
19,
-13,
-9,
-3,
7,
-34,
-42,
47,
22,
40,
-27,
-5,
8,
1,
58,
7,
33,
61,
-74,
-16,
28,
24,
19,
71,
9,
-5,
-45,
-52,
-15,
-27,
-123,
-28,
-10,
-53,
11,
4,
-7,
-56,
92,
42,
2,
-7,
36,
-9,
-23,
-3,
17,
-39,
-55,
-25,
-59,
2,
29,
71,
-4,
-45,
-28,
53,
-24,
-6,
44,
-14,
25,
-18,
16,
-92,
10,
22,
25,
63,
1,
17,
2,
-5,
-76,
-27,
-49,
42,
-68,
-23,
62,
-38,
-21,
31,
48,
-15,
52,
74,
22,
-73,
14,
12,
36,
11,
103,
96,
1,
20,
48,
11,
-24,
-5,
25,
39,
-31,
33,
-39,
8,
-43,
25,
-18,
16,
-35,
-48,
3,
-24,
27,
-35,
-1,
78,
20,
8,
34,
-55,
-9,
-59,
55,
-31,
-42,
0,
0,
-1,
34,
31,
6,
-30,
11,
32,
23,
82,
3,
-16,
25,
-26,
-23,
-21,
-3,
-18,
-92,
-69,
-19,
21,
25,
4,
19,
66,
-28,
-8,
-29,
-34,
0,
-11,
49,
66,
-5,
-6,
-13,
-61,
9,
-56,
-11,
-46,
-12,
41,
25,
-3,
9,
42,
-30,
41,
39,
3,
-35,
-1,
25,
-65,
-6,
-11,
16,
37,
-49,
-8,
41,
-14,
20,
-77,
20,
6,
-76,
-75,
15,
-23,
-67,
68,
-53,
6,
-56,
6,
-23,
49,
-28,
14,
-34,
26,
-2,
-7,
17,
6,
3,
36,
62,
-53,
64,
65,
10,
64,
35,
38,
30,
-49,
-30,
29,
-64,
-77,
-5,
40,
-16,
-17,
31,
-50,
3,
-3,
66,
33,
7,
-6,
-57,
-85,
78,
27,
-51,
-45,
32,
-12,
-10,
68,
-29,
-66,
47,
-50,
14,
53,
-54,
-33,
-18,
0,
13,
-3,
32,
-30,
81,
0,
25,
-14,
-12,
38,
-30,
40,
-2,
-83,
56,
36,
-31,
-73,
22,
46,
24,
-55,
-16,
-1,
31,
-17,
-73,
-52,
-25,
0,
-22,
25,
26,
26,
-44,
-52,
68,
-67,
34,
-13,
-43,
-36,
-38,
32,
-37,
49,
33,
-35,
10,
6,
14,
30,
23,
18,
12,
-18,
-69,
42,
23,
17,
114,
-26,
22,
-82,
-20,
-1,
-4,
66,
-37,
57,
32,
20,
64,
11,
-11,
12,
16,
4,
52,
33,
-39,
-46,
-30,
93,
-72,
11,
1,
39,
-13,
41,
28,
-8,
62,
37,
-49,
-21,
-13,
-47,
30,
32,
-38,
-40,
-46,
-34,
-31,
-19,
48,
-33,
-32,
28,
-9,
16,
8,
-1,
-62,
5,
66,
16,
-1,
-16,
27,
79,
15,
-6,
56,
63,
38,
-5,
-51,
-5,
4,
26,
-57,
4,
-22,
-35,
43,
-5,
-55,
19,
45,
-29,
-51,
14,
-34,
41,
9,
15,
-9,
13,
-27,
3,
8,
-71,
-56,
-44,
15,
-51,
21,
-12,
-59,
-28,
34,
62,
-10,
-53,
17,
1,
2,
1,
26,
16,
-22,
-61,
-13,
0,
44,
42,
-12,
-74,
-55,
15,
-25,
68,
-35,
19,
2,
-28,
65,
-29,
-3,
39,
-14,
29,
-17,
-89,
32,
9,
24,
-8,
-24,
-88,
31,
11,
8,
-2,
4,
0,
19,
-1,
-1,
9,
14,
37,
37,
-76,
48,
31,
61,
5,
-28,
26,
-88,
21,
-46,
33,
25,
70,
-35,
33,
24,
-23,
101,
59,
33,
15,
-8,
28,
-11,
-78,
6,
-33,
64,
25,
49,
-47,
-2,
-58,
57,
33,
-31,
8,
-17,
-52,
-10,
-9,
-23,
60,
-57,
-55,
-5,
-47,
-12,
-37,
8,
-36,
44,
20,
9,
24,
-54,
3,
-9,
47,
-9,
78,
-19,
42,
-3,
35,
-5,
40,
-22,
-51,
53,
-27,
-72,
37,
11,
54,
28,
15,
14,
30,
28,
32,
-56,
-23,
-63,
3,
-42,
41,
-25,
24,
48,
65,
17,
-1,
17,
16,
-77,
-81,
-67,
13,
-21,
10,
26,
-74,
-63,
40,
46,
39,
-7,
10,
67,
41,
15,
-7,
-16,
16,
-70,
44,
-22,
-58,
25,
26,
54,
-37,
17,
-56,
19,
46,
30,
17,
-68,
15,
-18,
-31,
66,
-27,
52,
-38,
-10,
19,
-14,
44,
24,
37,
6,
-29,
-29,
-56,
47,
9,
-46,
-52,
-47,
-26,
30,
54,
44,
-55,
74,
20,
51,
-4,
-67,
34,
-16,
2,
39,
-57,
17,
-34,
-9,
-43,
-36,
-5,
32,
-57,
-71,
-53,
-52,
32,
14,
-15,
26,
21,
-39,
-27,
-24,
-4,
-16,
51,
38,
21,
13,
-49,
70,
-41,
-55,
-41,
-18,
19,
-27,
12,
-49,
73,
-58,
5,
74,
-40,
19,
-77,
-7,
-84,
6,
83,
47,
65,
-35,
-9,
4,
28,
49,
29,
5,
11,
-27,
37,
-11,
-2,
58,
43,
-20,
40,
-35,
44,
-24,
2,
41,
-66,
57,
-14,
-33,
44,
-12,
-60,
64,
-11,
-31,
21,
-11,
57,
-40,
-39,
-36,
-8,
38,
75,
-92,
28,
-47,
42,
-23,
9,
0,
34,
-38,
-14,
-27,
6,
47,
-3,
-5,
-12,
76,
32,
-39,
10,
5,
-13,
67,
42,
-62,
62,
72,
24,
-36,
-57,
-1,
-30,
-35,
-41,
-22,
-7,
43,
25,
7,
25,
-50,
39,
15,
-58,
-44,
9,
73,
-11,
70,
14,
15,
72,
48,
-60,
-33,
-23,
-57,
-48,
-41,
-34,
53,
-62,
-47,
-9,
69,
16,
6,
-33,
30,
-31,
-52,
-39,
-49,
38,
-35,
74,
-14,
-77,
52,
-89,
15,
12,
40,
-51,
-17,
-11,
57,
-74,
14,
21,
22,
48,
-46,
-49,
29,
-18,
25,
-13,
-68,
69,
-81,
9,
-6,
51,
0,
-12,
-35,
70,
36,
-12,
18,
-39,
2,
53,
-12,
77,
53,
22,
57,
-39,
84,
-18,
12,
-58,
24,
12,
-37,
22,
-8,
-5,
-37,
-67,
27,
-55,
-47,
-25,
-26,
0,
14,
-34,
24,
-46,
17,
-33,
58,
23,
3,
-41,
7,
-1,
0,
39,
8,
71,
-16,
25,
41,
26,
62,
-11,
84,
-76,
-50,
13,
-2,
-55,
-46,
68,
-79,
20,
19,
-28,
-24,
-39,
-23,
-18,
8,
25,
-29,
17,
-53,
-6,
55,
17,
10,
71,
-33,
-70,
26,
70,
3,
-17,
-55,
-35,
19,
-8,
-7,
-42,
-7,
38,
-44,
-7,
-31,
-51,
13,
43,
-38,
-73,
-11,
-48,
-44,
7,
-90,
-15,
-55,
-52,
-12,
26,
5,
-21,
79,
62,
-31,
-36,
-22,
25,
-16,
28,
-14,
16,
87,
19,
-46,
42,
21,
-64,
50,
22,
-31,
8,
-43,
-45,
14,
36,
15,
-11,
28,
13,
-3,
52,
5,
-16,
-17,
-25,
7,
14,
-61,
15,
81,
15,
-44,
29,
-44,
34,
0,
16,
34,
38,
-50,
-52,
-11,
0,
38,
35,
-56,
-16,
84,
20,
18,
12,
15,
8,
-25,
-12,
70,
22,
-24,
58,
36,
39,
-18,
31,
-38,
-22,
19,
11,
-54,
-13,
-52,
45,
-6,
-66,
-37,
-26,
26,
-8,
6,
5,
-28,
5,
-92,
-51,
-31,
93,
-36,
53,
-16,
-38,
43,
-59,
-3,
-63,
-55,
-1,
-30,
19,
-17,
-8,
-54,
23,
32,
35,
-12,
-115,
52,
-17,
92,
-5,
-36,
-49,
-2,
49,
2,
-27,
-9,
0,
37,
105,
4,
-43,
38,
-20,
-27,
39,
-33,
18,
31,
34,
-10,
-43,
24,
-30,
6,
-19,
10,
-17,
-20,
58,
38,
-37,
-37,
-39,
40,
-44,
-6,
-53,
-84,
-81,
66,
-40,
8,
-47,
1,
28,
-22,
-13,
-92,
28,
-30,
-57,
-29,
-10,
-7,
0,
-19,
2,
-2,
0,
8,
-40,
-28,
5,
-47,
-30,
35,
46,
-29,
5,
-36,
-67,
28,
40,
11,
16,
-15,
-93,
-28,
-80,
43,
79,
-35,
-29,
39,
40,
-23,
53,
10,
-12,
-39,
74,
34,
-21,
-12,
-11,
32,
-50,
-62,
-50,
2,
29,
-29,
24,
-18,
-49,
-3,
40,
-54,
21,
-80,
-21,
-38,
14,
38,
22,
-26,
18,
-19,
0,
20,
-54,
76,
-10,
-44,
7,
-46,
16,
-54,
-23,
17,
24,
-45,
57,
-11,
23,
-29,
1,
-70,
-49,
23,
-2,
24,
11,
-114,
38,
62,
-14,
47,
-29,
39,
4,
-25,
-62,
-2,
-8,
-75,
-31,
24,
16,
43,
32,
-48,
0,
92,
63,
-60,
15,
54,
104,
-29,
-33,
-4,
10,
-7,
-19,
39,
-49,
13,
62,
-5,
7,
-54,
88,
32,
-29,
21,
78,
12,
-30,
78,
28,
34,
5,
54,
1,
9,
36,
-6,
-32,
-41,
-19,
40,
33,
9,
-55,
54,
-14,
-1,
-33,
-43,
-76,
-50,
-1,
6,
41,
27,
50,
-19,
-56,
32,
-79,
-5,
-33,
28,
39,
-33,
-9,
25,
-55,
20,
13,
74,
39,
2,
-56,
79,
53,
42,
28,
-18,
-1,
-84,
72,
29,
-51,
57,
-31,
18,
47,
33,
44,
-3,
-14,
-2,
-6,
-40,
41,
17,
-30,
16,
1,
13,
-54,
-52,
35,
-50,
1,
-43,
-26,
-61,
-48,
-40,
0,
-4,
4,
-12,
-56,
-88,
-29,
-30,
27,
77,
-18,
3,
-40,
42,
-5,
16,
-2,
46,
-14,
17,
62,
67,
31,
-30,
1,
14,
-64,
36,
5,
51,
-14,
22,
9,
44,
33,
-50,
42,
41,
48,
54,
56,
-12,
-34,
-76,
19,
31,
-22,
-18,
11,
27,
26,
1,
17,
-75,
-49,
30,
-16,
-37,
-17,
-12,
-79,
-34,
72,
-51,
34,
-48,
-11,
-100,
-49,
60,
-25,
12,
32,
-53,
-11,
27,
52,
66,
-40,
-4,
5,
-3,
-46,
-18,
-7,
29,
15,
-28,
44,
-11,
-32,
61,
-56,
17,
-13,
-14,
58,
-39,
73,
-31,
-25,
23,
-57,
-26,
2,
31,
-75,
-74,
-69,
27,
-15,
-42,
-52,
-24,
7,
-66,
-9,
-9,
39,
-46,
-19,
28,
57,
-35,
-55,
29,
-70,
-67,
-72,
59,
40,
-8,
-24,
60,
23,
-49,
-111,
-23,
-17,
-5,
33,
26,
39,
-37,
0,
63,
1,
64,
14,
21,
-77,
-46,
-39,
42,
-39,
30,
2,
-12,
-14,
-7,
40,
-24,
-30,
40,
28,
16,
-8,
-3,
70,
-17,
-38,
60,
29,
-32,
54,
-1,
-30,
49,
-8,
-33,
23,
-27,
-50,
-32,
-62,
-64,
-65,
30,
0,
-42,
4,
25,
-31,
-28,
39,
-48,
-40,
-18,
-5,
-14,
31,
18,
-5,
15,
-19,
52,
45,
-27,
-90,
95,
15,
-70,
-11,
25,
-28,
-35,
-29,
-46,
0,
51,
40,
-51,
-4,
58,
-7,
30,
6,
21,
-21,
-22,
22,
6,
42,
22,
-45,
69,
49,
8,
46,
-16,
43,
-46,
-56,
-64,
-5,
0,
-58,
9,
0,
-53,
43,
61,
33,
-24,
-62,
38,
24,
-68,
9,
41,
-33,
-65,
-24,
40,
-7,
-28,
-18,
-43,
27,
10,
35,
85,
-58,
-31,
4,
-57,
-28,
-5,
24,
23,
22,
84,
-8,
-30,
-77,
-14,
-18,
11,
-28,
74,
-17,
-5,
-48,
-28,
-38,
98,
-41,
-13,
-79,
-58,
-11,
11,
91,
12,
39,
-49,
-25,
52,
-76,
10,
-34,
-12,
17,
-24,
-65,
16,
-55,
-18,
27,
12,
-68,
59,
2,
44,
-30,
56,
12,
-2,
54,
-21,
-6,
-36,
-8,
83,
-47,
18,
57,
25,
54,
-30,
29,
-51,
8,
-42,
43,
54,
48,
-15,
-38,
53,
-54,
97,
12,
39,
-16,
-17,
36,
-27,
-58,
16,
-6,
54,
35,
-39,
-28,
-7,
-73,
34,
-20,
17,
-34,
13,
4,
-48,
-52,
8,
63,
-4,
30,
-32,
12,
40,
5,
12,
-67,
-75,
-19,
68,
-9,
-33,
75,
9,
0,
13,
90,
-43,
-7,
32,
-1,
59,
22,
-1,
13,
23,
-2,
-67,
-23,
30,
21,
50,
16,
18,
5,
51,
-36,
-51,
44,
-91,
-35,
-29,
7,
-18,
10,
-15,
16,
-58,
44,
-21,
-64,
8,
-46,
13,
3,
45,
5,
8,
17,
16,
45,
75,
-9,
93,
-37,
36,
33,
8,
-21,
54,
41,
-1,
-31,
16,
-28,
-51,
7,
34,
-28,
6,
18,
-78,
-41,
86,
29,
-38,
35,
-14,
-15,
28,
62,
-5,
27,
-29,
-78,
-56,
49,
-44,
11,
-35,
-45,
4,
-60,
33,
18,
-19,
-74,
-34,
5,
-7,
37,
15,
3,
-5,
-31,
47,
61,
17,
-27,
-57,
-18,
74,
33,
-1,
-31,
7,
-60,
2,
30,
16,
46,
-9,
-27,
6,
-28,
-15,
-8,
99,
-8,
47,
-13,
33,
50,
24,
-8,
-51,
-31,
16,
-11,
23,
40,
-42,
-61,
-54,
74,
-31,
-13,
36,
39,
31,
-12,
-57,
-58,
-29,
69,
-72,
-12,
-63,
25,
-72,
-46,
19,
64,
5,
51,
-52,
11,
17,
46,
44,
-35,
1,
-12,
0,
25,
-25,
-30,
62,
32,
-29,
39,
44,
-74,
35,
-12,
-18,
3,
-44,
77,
8,
-11,
-40,
43,
-23,
21,
8,
18,
11,
-76,
16,
-46,
17,
2,
-15,
-80,
24,
-28,
-41,
-11,
-47,
-2,
-35,
-17,
22,
32,
-59,
1,
24,
-103,
-22,
-53,
63,
22,
-24,
-4,
-2,
-12,
88,
26,
-59,
43,
71,
4,
-37,
-20,
-38,
16,
-50,
78,
-27,
37,
-35,
27,
-4,
-57,
-14,
-10,
-32,
1,
47,
-69,
-84,
-40,
7,
57,
17,
4,
-6,
39,
32,
-27,
32,
-5,
-11,
-50,
14,
-14,
-9,
19,
52,
-111,
11,
18,
-13,
11,
-44,
65,
61,
-12,
53,
10,
7,
30,
-11,
-12,
68,
-55,
33,
-10,
56,
-13,
19,
-44,
-32,
-11,
22,
-19,
-34,
-26,
-81,
49,
-1,
3,
34,
27,
45,
-60,
10,
4,
88,
4,
-20,
4,
-39,
82,
4,
-41,
23,
15,
10,
-22,
14,
-32,
26,
52,
51,
33,
15,
-58,
-21,
-15,
-42,
-24,
17,
-23,
58,
34,
-41,
-10,
36,
38,
60,
9,
22,
-48,
-8,
-25,
-13,
-22,
30,
-34,
-35,
44,
-58,
58,
-32,
72,
-10,
-47,
-53,
-24,
81,
-36,
-20,
-37,
-29,
-36,
-44,
16,
-24,
-15,
-76,
-25,
-53,
42,
29,
-1,
63,
2,
-33,
-8,
8,
27,
8,
-19,
-19,
0,
-38,
-47,
50,
1,
-6,
68,
17,
-64,
-7,
12,
92,
-17,
-2,
66,
23,
-25,
11,
-8,
38,
-39,
15,
-40,
35,
-31,
34,
-30,
-13,
58,
-7,
-71,
-32,
14,
-60,
24,
-95,
37,
-63,
40,
-54,
-35,
29,
-9,
-36,
14,
71,
-38,
-53,
-10,
45,
-33,
-6,
50,
16,
35,
2,
-16,
66,
66,
-6,
-51,
10,
-8,
-13,
37,
35,
-1,
-32,
-56,
8,
53,
-40,
62,
11,
52,
-11,
55,
-77,
-47,
31,
18,
-18,
-38,
-9,
31,
24,
-14,
-28,
-12,
-84,
-72,
47,
93,
-14,
-13,
-78,
4,
-75,
48,
69,
-18,
52,
30,
-8,
-82,
-23,
-17,
20,
2,
17,
57,
38,
-8,
-37,
-27,
-81,
-52,
-19,
-5,
29,
-9,
-79,
52,
16,
-22,
13,
11,
29,
-43,
19,
-3,
-46,
37,
54,
14,
34,
36,
48,
-46,
14,
48,
-15,
33,
-42,
72,
6,
6,
14,
-45,
-41,
39,
-33,
-22,
-88,
17,
20,
-64,
14,
34,
-48,
-8,
-38,
23,
-9,
-52,
48,
-64,
-12,
91,
-12,
-41,
37,
22,
-16,
-10,
-19,
-42,
-33,
59,
5,
24,
-4,
-28,
-34,
15,
-39,
7,
-18,
-39,
-3,
51,
28,
5,
66,
3,
-14,
42,
40,
-3,
-15,
17,
17,
-58,
56,
29,
0,
-20,
51,
-17,
44,
-72,
-37,
-74,
-12,
52,
-51,
31,
31,
21,
-22,
-18,
70,
-18,
0,
-21,
34,
11,
16,
-54,
-4,
26,
-40,
-70,
-48,
56,
15,
34,
22,
-4,
-37,
33,
25,
-21,
23,
-9,
-12,
-40,
-21,
39,
-2,
10,
-44,
-32,
-10,
-40,
-11,
-14,
57,
-40,
-66,
-3,
0,
-21,
66,
-30,
42,
5,
-53,
-25,
3,
27,
-10,
55,
-15,
29,
-27,
48,
37,
-23,
-24,
44,
-38,
44,
29,
-11,
-34,
14,
7,
-33,
28,
22,
-34,
-28,
-15,
-26,
66,
32,
-56,
-62,
-91,
-21,
61,
-15,
-63,
9,
28,
11,
-31,
34,
-75,
-9,
18,
-64,
-19,
-45,
62,
-58,
-12,
-7,
26,
-12,
-31,
-47,
-26,
-34,
4,
33,
-45,
32,
-5,
28,
38,
-30,
-18,
-10,
39,
-68,
-37,
14,
16,
-70,
-33,
22,
-28,
-4,
24,
-14,
-30,
-1,
29,
-10,
-17,
25,
-23,
78,
-18,
-13,
6,
-23,
27,
35,
14,
-62,
75,
19,
-47,
57,
-16,
-12,
46,
-10,
29,
-46,
44,
34,
-62,
-33,
-34,
-89,
-45,
42,
-60,
-30,
-37,
-45,
-54,
5,
-78,
33,
-37,
-70,
54,
31,
-36,
-44,
17,
45,
-92,
36,
-37,
20,
-25,
-32,
-44,
-33,
26,
12,
-40,
24,
45,
25,
35,
44,
30,
-72,
17,
-5,
51,
19,
39,
-19,
-11,
32,
37,
7,
-6,
4,
-31,
-20,
-36,
40,
-59,
-22,
89,
-43,
-90,
14,
-3,
19,
-75,
-74,
15,
61,
-14,
-32,
-7,
-27,
-26,
-29,
26,
-75,
35,
-15,
-68,
21,
-45,
16,
16,
-38,
-57,
60,
-22,
10,
-50,
12,
-8,
-24,
56,
-33,
73,
-33,
-33,
0,
8,
16,
44,
-11,
-1,
13,
-1,
-7,
13,
25,
-31,
-43,
-13,
42,
23,
18,
40,
44,
-1,
-49,
79,
-46,
-97,
-36,
-48,
2,
-42,
-7,
58,
-12,
-27,
68,
56,
-21,
19,
-1,
103,
4,
-24,
45,
19,
-25,
3,
82,
-30,
-33,
17,
-10,
-3,
-77,
25,
9,
4,
18,
14,
-8,
-45,
61,
-20,
-38,
52,
-23,
49,
-24,
-67,
59,
-1,
-9,
38,
18,
35,
-50,
-22,
-75,
10,
2,
-12,
-71,
-59,
2,
-1,
71,
40,
-76,
84,
13,
19,
-48,
-48,
-75,
-12,
-15,
27,
-3,
-26,
45,
65,
-27,
41,
-65,
60,
-12,
24,
15,
-28,
7,
-69,
-24,
0,
47,
-65,
51,
44,
21,
-16,
-40,
40,
-81,
-68,
-69,
42,
25,
-10,
-3,
20,
88,
-45,
13,
41,
54,
21,
82,
-33,
26,
51,
20,
55,
-88,
-5,
10,
-1,
-40,
-56,
-44,
-11,
-5,
-30,
7,
7,
-54,
1,
-5,
-51,
-23,
55,
24,
-44,
18,
48,
38,
75,
-29,
-17,
-9,
-5,
-5,
-35,
41,
-57,
38,
10,
-50,
-71,
87,
30,
-19,
19,
32,
-67,
-32,
52,
35,
42,
88,
-37,
-54,
7,
-53,
28,
76,
-18,
-4,
2,
-41,
-1,
0,
-19,
-26,
46,
9,
-34,
-66,
-26,
-6,
72,
18,
2,
-37,
37,
107,
-28,
14,
45,
-61,
33,
-31,
-26,
-21,
-53,
57,
22,
-3,
-79,
40,
11,
20,
32,
32,
43,
-14,
38,
-35,
24,
-16,
54,
37,
17,
-8,
-36,
-43,
4,
22,
46,
-54,
-75,
-22,
-5,
-31,
-24,
69,
-65,
-36,
-26,
22,
2,
22,
-16,
-10,
9,
13,
47,
-17,
12,
7,
15,
2,
-14,
-60,
42,
-43,
-1,
69,
21,
25,
47,
-20,
12,
74,
-11,
-5,
-12,
63,
-59,
33,
23,
-20,
46,
-20,
24,
40,
61,
-11,
11,
-45,
-10,
33,
-26,
-11,
38,
-9,
33,
20,
-21,
-36,
-9,
14,
-1,
78,
-69,
-39,
-67,
-21,
-15,
-71,
55,
-24,
-23,
-62,
22,
20,
-48,
-16,
31,
-39,
2,
-33,
53,
23,
-54,
-52,
49,
12,
44,
-11,
53,
-8,
29,
-29,
-24,
-17,
2,
24,
-11,
0,
18,
-39,
-71,
-74,
89,
32,
23,
-26,
9,
-37,
-17,
-18,
23,
-2,
-13,
-27,
10,
-14,
-36,
-34,
-29,
108,
-20,
-1,
0,
77,
66,
6,
4,
-7,
1,
-41,
15,
-18,
29,
55,
-29,
-4,
32,
71,
3,
26,
49,
69,
13,
23,
79,
5,
-9,
-37,
-48,
106,
-64,
55,
-17,
93,
-53,
-3,
37,
-65,
75,
-24,
-18,
2,
-77,
-22,
31,
-6,
30,
23,
-1,
-14,
-25,
-9,
30,
-27,
3,
40,
3,
57,
-8,
-62,
-82,
64,
20,
45,
-23,
49,
0,
88,
8,
15,
-28,
17,
85,
6,
-60,
0,
56,
8,
-19,
8,
-25,
2,
-4,
-110,
14,
49,
15,
-46,
-34,
0,
68,
46,
-14,
9,
-39,
-45,
-17,
-32,
19,
-29,
-56,
-19,
62,
-62,
35,
-33,
-25,
-43,
26,
-27,
21,
51,
90,
-17,
-9,
-35,
-51,
3,
-19,
37,
-11,
17,
25,
38,
57,
36,
45,
61,
-9,
-34,
-4,
-60,
52,
-10,
-49,
71,
62,
48,
80,
-17,
11,
35,
-31,
-6,
63,
7,
-5,
-11,
-39,
98,
-59,
46,
-17,
52,
-31,
7,
28,
-7,
39,
58,
-16,
-8,
-63,
-35,
-25,
-43,
30,
-7,
-6,
-34,
10,
-6,
41,
-5,
2,
24,
1,
2,
-13,
-5,
-64,
-12,
63,
-4,
-65,
32,
-18,
22,
-1,
26,
18,
70,
-6,
-11,
-67,
-67,
49,
31,
-85,
14,
-11,
69,
29,
21,
-33,
-19,
-7,
16,
13,
-21,
-71,
53,
-7,
44,
-31,
-37,
49,
-7,
-13,
37,
19,
-36,
-5,
27,
25,
-57,
-17,
47,
-50,
42,
-65,
37,
51,
-31,
-46,
-74,
-24,
25,
-97,
-27,
-5,
-34,
21,
44,
-19,
3,
-22,
8,
-12,
26,
-66,
-13,
-38,
5,
12,
-16,
10,
15,
28,
-6,
-16,
18,
-41,
27,
22,
-3,
-69,
-1,
17,
-78,
-54,
-30,
20,
-66,
-2,
35,
65,
-34,
-12,
47,
-7,
-20,
30,
69,
-43,
11,
32,
-76,
16,
-43,
46,
-97,
-20,
-20,
-45,
14,
-17,
-83,
36,
28,
-46,
-35,
-60,
-53,
-42,
25,
43,
13,
-45,
-15,
73,
47,
46,
3,
60,
8,
-92,
69,
-63,
-58,
-16,
21,
-14,
-31,
-43,
50,
-24,
37,
3,
26,
-40,
3,
-44,
25,
32,
-82,
7,
-45,
-41,
67,
12,
5,
-42,
-21,
-67,
-8,
-55,
-27,
-62,
29,
29,
-34,
47,
21,
50,
-18,
-34,
-20,
-88,
-14,
4,
-44,
-32,
71,
-58,
36,
-36,
26,
24,
-36,
-30,
-57,
24,
-27,
26,
23,
-51,
-3,
-55,
1,
37,
-19,
-11,
20,
-44,
33,
-51,
-35,
20,
-55,
11,
-6,
-43,
-31,
33,
-27,
15,
-40,
-6,
-13,
-67,
4,
84,
28,
-42,
-13,
-61,
-17,
46,
23,
42,
-33,
26,
3,
67,
61,
-45,
-59,
-33,
61,
15,
17,
-31,
1,
-16,
-16,
5,
-7,
-29,
18,
36,
-25,
55,
11,
77,
32,
-110,
66,
-40,
3,
56,
61,
0,
-6,
-27,
-33,
57,
13,
28,
70,
-68,
-11,
6,
63,
33,
53,
-43,
-50,
-62,
-9,
78,
-54,
35,
65,
-33,
53,
-24,
29,
0,
24,
32,
29,
-9,
21,
16,
-4,
-24,
-76,
-31,
25,
-20,
25,
12,
59,
42,
29,
-94,
4,
-59,
-34,
-20,
17,
-60,
5,
42,
-2,
57,
28,
13,
3,
20,
-16,
9,
-27,
-28,
16,
-57,
30,
-22,
-38,
-89,
11,
43,
-6,
-91,
-6,
24,
-41,
8,
1,
11,
-21,
5,
80,
33,
-61,
66,
-44,
-21,
54,
-50,
-44,
25,
40,
14,
43,
3,
-55,
-10,
-41,
25,
-26,
-11,
45,
-41,
29,
-41,
13,
59,
-50,
-64,
36,
-24,
-40,
20,
-56,
-35,
52,
47,
-8,
-24,
28,
-1,
36,
-37,
5,
54,
13,
-29,
-44,
-22,
24,
-6,
54,
-1,
31,
-76,
38,
43,
-20,
17,
50,
-7,
49,
55,
-47,
33,
0,
32,
-25,
-57,
-44,
-38,
-33,
-9,
-15,
27,
-21,
-35,
-16,
11,
-16,
40,
38,
-47,
-47,
-53,
-30,
-10,
82,
-46,
4,
-40,
-67,
35,
-91,
-1,
-32,
-67,
2,
22,
-31,
4,
-58,
-81,
3,
-70,
41,
71,
-111,
28,
-14,
17,
-26,
22,
43,
-24,
19,
-36,
56,
50,
-54,
-23,
15,
96,
-11,
-25,
-42,
-41,
15,
-24,
4,
5,
-9,
53,
42,
14,
-48,
4,
30,
72,
28,
-31,
28,
39,
-48,
-17,
-36,
73,
28,
-41,
-59,
14,
-78,
18,
-41,
21,
-21,
25,
16,
65,
66,
-17,
17,
8,
-40,
69,
36,
34,
-25,
-11,
-1,
50,
3,
-4,
-7,
17,
15,
-26,
49,
82,
21,
33,
15,
36,
-35,
45,
37,
22,
-18,
-11,
61,
1,
-43,
-50,
63,
-62,
-59,
65,
45,
-28,
57,
-26,
27,
63,
-26,
28,
-100,
-43,
7,
15,
43,
-50,
-27,
-6,
-9,
14,
64,
48,
3,
-31,
56,
8,
1,
24,
-35,
-22,
40,
-23,
-12,
16,
23,
24,
-51,
-15,
-12,
54,
-32,
-19,
-16,
-1,
-3,
-82,
-4,
11,
-3,
47,
-8,
-52,
-1,
-2,
-19,
-24,
-22,
-6,
-40,
51,
41,
-77,
-60,
-14,
-14,
70,
42,
28,
45,
-28,
20,
17,
-24,
-85,
-14,
18,
-54,
7,
-23,
7,
-21,
15,
55,
26,
73,
11,
-6,
-70,
-15,
32,
-13,
-24,
-59,
-56,
33,
-6,
26,
-31,
-38,
-49,
14,
-59,
-1,
29,
-78,
19,
-38,
27,
-69,
67,
13,
-41,
39,
-28,
-17,
-2,
-7,
-83,
-9,
-89,
-39,
-46,
21,
24,
57,
32,
7,
73,
85,
-7,
24,
0,
-20,
18,
-85,
-24,
-42,
65,
61,
6,
56,
6,
-8,
-48,
32,
-55,
-8,
4,
29,
-109,
31,
-3,
-74,
-46,
-48,
39,
-67,
8,
-35,
75,
5,
-21,
125,
-14,
-3,
-36,
10,
-10,
-57,
20,
15,
-18,
27,
41,
-21,
54,
27,
4,
-62,
53,
-20,
43,
35,
18,
18,
-26,
-16,
-60,
-28,
-26,
-21,
-45,
-16,
-9,
41,
14,
14,
47,
-1,
-71,
27,
7,
-13,
-42,
-68,
3,
43,
30,
-51,
4,
-9,
2,
-33,
18,
-73,
13,
-11,
-81,
9,
-78,
13,
43,
0,
-21,
49,
-8,
-3,
24,
26,
54,
-22,
46,
-3,
46,
-17,
-57,
-35,
6,
60,
-27,
10,
50,
-21,
45,
57,
18,
-50,
-31,
-15,
39,
45,
52,
-19,
-3,
58,
45,
12,
103,
-1,
-78,
-59,
-54,
-52,
19,
-8,
36,
-64,
-73,
37,
15,
-9,
36,
-7,
8,
25,
-49,
19,
33,
12,
-67,
60,
-35,
1,
12,
14,
35,
-68,
83,
-14,
18,
31,
-2,
34,
-42,
35,
-61,
-5,
24,
-41,
8,
23,
-29,
47,
11,
43,
13,
15,
22,
-58,
-47,
-80,
-27,
-52,
-37,
-56,
-9,
24,
-7,
65,
9,
-55,
30,
90,
-36,
-13,
52,
58,
-43,
53,
9,
-5,
-8,
-23,
-70,
-44,
17,
39,
14,
-62,
-7,
51,
-29,
47,
10,
24,
36,
-1,
70,
-43,
6,
-12,
-4,
-6,
13,
49,
9,
54,
-18,
-45,
-8,
-41,
-43,
-79,
52,
-100,
-34,
38,
-18,
-22,
-32,
20,
-29,
20,
-45,
38,
-17,
45,
19,
-31,
50,
10,
43,
34,
52,
-30,
4,
37,
34,
39,
-14,
39,
8,
-17,
-1,
44,
-18,
-43,
-4,
83,
-33,
-22,
6,
-19,
-18,
-56,
67,
-6,
-25,
-10,
-22,
-96,
-4,
-17,
-41,
-29,
3,
32,
-15,
64,
-12,
-70,
62,
22,
-49,
44,
-63,
-46,
-53,
-48,
9,
-49,
-10,
-40,
69,
19,
23,
58,
-16,
49,
-43,
50,
-47,
-64,
55,
-5,
-7,
48,
-29,
59,
46,
-17,
31,
20,
-42,
0,
-63,
-12,
61,
32,
-53,
51,
-9,
13,
-23,
80,
19,
-24,
67,
9,
-40,
-33,
-9,
28,
-6,
12,
36,
-43,
71,
-68,
-23,
-64,
16,
-10,
-70,
-96,
4,
36,
-48,
-64,
8,
-91,
-18,
-7,
-43,
-21,
-9,
108,
-26,
-34,
12,
36,
19,
71,
65,
14,
24,
17,
5,
40,
-41,
47,
5,
28,
16,
48,
-80,
-30,
7,
17,
-21,
-23,
69,
-83,
19,
6,
-27,
27,
58,
30,
-3,
5,
-21,
25,
-79,
4,
-18,
-15,
-61,
88,
-52,
20,
-27,
-26,
-60,
48,
15,
-41,
-19,
0,
-13,
36,
53,
68,
33,
-15,
65,
-36,
-93,
7,
28,
17,
14,
8,
20,
40,
67,
83,
34,
45,
27,
-51,
24,
-23,
3,
-36,
-15,
34,
85,
-12,
-17,
-14,
-24,
31,
40,
2,
96,
59,
48,
-5,
-29,
-10,
-47,
-1,
-6,
53,
18,
20,
-36,
8,
-16,
-85,
15,
7,
34,
-41,
-49,
57,
-17,
16,
-50,
-8,
-116,
-3,
-27,
-5,
-32,
12,
-21,
-8,
83,
-20,
49,
40,
-3,
27,
17,
-29,
13,
11,
62,
54,
8,
-56,
-20,
87,
-5,
-12,
-51,
84,
-41,
-32,
75,
-83,
10,
5,
34,
83,
27,
39,
-4,
-54,
-9,
76,
-44,
18,
40,
-63,
-21,
49,
12,
-31,
-53,
-32,
-67,
30,
-16,
62,
-64,
5,
-31,
17,
86,
-21,
-37,
33,
2,
-71,
-21,
-49,
8,
-1,
-63,
24,
-56,
9,
-20,
-33,
3,
-70,
5,
45,
-19,
-4,
22,
24,
97,
-10,
-18,
14,
8,
14,
64,
-34,
-6,
-9,
62,
20,
31,
52,
49,
22,
53,
-61,
17,
21,
15,
38,
-81,
23,
12,
-13,
-19,
-24,
-17,
30,
71,
-34,
20,
-10,
-43,
-7,
-90,
46,
49,
74,
3,
-27,
16,
-53,
6,
-43,
6,
-80,
-80,
20,
18,
-86,
38,
-56,
24,
17,
-32,
-74,
41,
0,
60,
45,
-11,
66,
-2,
44,
-27,
28,
73,
-51,
4,
35,
37,
37,
68,
-27,
-57,
-22,
-32,
50,
57,
-40,
-28,
-103,
67,
37,
8,
-39,
-58,
-10,
6,
52,
15,
-33,
-63,
14,
-11,
-49,
-23,
-18,
-78,
-62,
10,
-39,
20,
-50,
-27,
-4,
-9,
45,
-8,
-3,
40,
39,
-39,
-26,
64,
-12,
28,
-29,
5,
-55,
19,
-43,
3,
3,
23,
35,
15,
60,
-10,
-56,
57,
7,
36,
-7,
-55,
23,
-5,
55,
30,
-41,
-43,
-27,
-21,
50,
-35,
-10,
-56,
-36,
27,
-3,
-28,
-3,
28,
-52,
-34,
-4,
-41,
70,
-39,
55,
-73,
14,
-2,
43,
63,
7,
-28,
67,
-35,
77,
69,
-37,
-10,
71,
-51,
-47,
39,
38,
-31,
-69,
-8,
0,
69,
-7,
51,
-22,
-40,
12,
-23,
50,
-60,
70,
6,
-46,
47,
-50,
-30,
33,
-2,
-35,
-27,
-63,
33,
38,
-75,
-33,
-55,
-31,
54,
-48,
-19,
50,
26,
33,
-30,
2,
-3,
-3,
23,
20,
-39,
11,
47,
55,
-28,
-3,
-21,
-41,
-33,
-26,
38,
-4,
30,
-32,
-28,
16,
13,
-41,
-62,
-35,
26,
53,
-12,
-12,
-3,
-3,
-77,
35,
-32,
25,
23,
-4,
-2,
-13,
55,
-24,
-21,
0,
15,
-44,
83,
-75,
36,
-33,
2,
-4,
-97,
-83,
14,
49,
-41,
-61,
39,
-65,
-39,
16,
-13,
-41,
8,
49,
-84,
5,
8,
23,
34,
33,
31,
-58,
77,
27,
59,
-25,
-33,
-45,
10,
50,
8,
35,
-39,
47,
-31,
71,
-53,
-67,
81,
-73,
-9,
8,
-20,
-38,
41,
9,
-51,
54,
-31,
2,
-21,
-39,
38,
12,
-29,
51,
-74,
38,
0,
-72,
-13,
15,
0,
37,
33,
-4,
4,
43,
36,
66,
68,
-53,
34,
22,
-52,
6,
79,
-18,
21,
37,
62,
34,
-59,
15,
67,
40,
58,
-81,
5,
-31,
-3,
-6,
-37,
33,
49,
11,
-90,
-25,
-20,
24,
34,
24,
22,
-67,
-11,
-84,
17,
-16,
32,
26,
-31,
63,
0,
20,
-15,
5,
-11,
-52,
-32,
15,
-11,
3,
-119,
18,
12,
0,
79,
0,
28,
-50,
-40,
-80,
-10,
81,
-15,
45,
5,
81,
50,
42,
85,
19,
-38,
68,
13,
21,
-44,
6,
35,
52,
-38,
25,
-27,
-19,
-11,
-19,
57,
-74,
66,
37,
-55,
13,
-49,
-42,
49,
-41,
34,
12,
-10,
-26,
-68,
-55,
-12,
-29,
3,
-21,
-68,
-14,
-30,
9,
-50,
7,
27,
-27,
-40,
27,
10,
81,
36,
-20,
-9,
61,
58,
24,
-20,
-30,
20,
8,
26,
67,
42,
54,
16,
15,
-22,
-8,
21,
31,
60,
24,
20,
7,
20,
27,
65,
75,
7,
-5,
30,
4,
28,
24,
50,
5,
6,
9,
51,
70,
-41,
-6,
-24,
27,
-24,
1,
-49,
74,
-5,
-61,
1,
-23,
-12,
25,
31,
29,
40,
-15,
-28,
-93,
-55,
17,
-6,
20,
-73,
-26,
-24,
-50,
11,
-37,
-23,
-19,
-14,
54,
-14,
-53,
-20,
-44,
5,
50,
13,
-60,
23,
-13,
56,
17,
3,
-21,
63,
-45,
44,
-2,
30,
1,
-45,
71,
-11,
31,
20,
33,
-2,
-5,
-42,
18,
-18,
-35,
14,
-25,
79,
-31,
-19,
-33,
-34,
-10,
30,
-19,
16,
36,
-48,
-18,
25,
-26,
-93,
8,
10,
-76,
14,
-92,
7,
1,
-28,
-13,
-28,
64,
50,
31,
-32,
-30,
1,
29,
-17,
-2,
-88,
-6,
30,
-14,
11,
54,
10,
-34,
-8,
-56,
-33,
-2,
39,
29,
33,
-3,
-41,
43,
38,
13,
-33,
-11,
-4,
-31,
-3,
-1,
-11,
-70,
-25,
-42,
-26,
-6,
57,
23,
-16,
-6,
-119,
-6,
-69,
72,
-30,
28,
-49,
-31,
-38,
-80,
6,
-39,
8,
-56,
-44,
0,
34,
-56,
-43,
-6,
-47,
37,
2,
-84,
-7,
-32,
48,
29,
-45,
36,
-48,
19,
-23,
44,
47,
0,
-11,
127,
15,
-13,
-10,
-39,
4,
26,
-46,
-2,
66,
10,
-1,
21,
34,
-72,
87,
-60,
37,
12,
-38,
-7,
-32,
-30,
6,
-53,
63,
25,
-9,
-22,
-51,
-31,
37,
-49,
-4,
-7,
34,
-40,
72,
-32,
-44,
-50,
-8,
-44,
-22,
-25,
-58,
15,
-12,
18,
-1,
-6,
60,
-7,
29,
-34,
9,
-18,
60,
-69,
-21,
7,
-51,
32,
-41,
0,
-83,
46,
-30,
-44,
30,
64,
1,
9,
-34,
2,
1,
53,
-9,
13,
17,
3,
-29,
21,
49,
57,
-64,
-80,
-47,
-101,
6,
47,
-18,
42,
21,
-4,
-53,
19,
45,
-10,
-41,
-30,
-38,
-59,
-71,
-17,
-62,
-7,
-54,
-59,
-12,
-7,
27,
-58,
43,
36,
-40,
8,
-28,
71,
17,
15,
-2,
45,
6,
-13,
-47,
23,
44,
-13,
33,
29,
-1,
58,
-40,
-4,
50,
44,
42,
-50,
-13,
18,
28,
75,
49,
7,
-39,
-13,
-30,
20,
-27,
22,
3,
25,
-40,
48,
-17,
41,
-75,
18,
49,
-76,
-10,
23,
-77,
-7,
31,
22,
-7,
27,
37,
-40,
-63,
-39,
19,
6,
-21,
-10,
19,
-39,
32,
11,
-6,
0,
14,
6,
-84,
-27,
-19,
37,
23,
25,
-86,
-47,
30,
34,
-89,
6,
67,
-9,
-19,
-14,
2,
57,
-1,
76,
59,
-23,
2,
-11,
43,
-50,
-34,
42,
38,
12,
4,
27,
-97,
-22,
-53,
13,
12,
13,
-27,
-4,
-32,
-9,
-8,
-33,
27,
-39,
-23,
-24,
-23,
53,
-11,
27,
20,
37,
1,
78,
-68,
29,
66,
-44,
16,
-58,
70,
-22,
36,
-5,
-18,
-41,
66,
-30,
45,
35,
-49,
-64,
7,
-65,
-31,
33,
87,
-63,
-74,
-5,
54,
6,
-21,
44,
26,
-1,
-83,
36,
-68,
-90,
4,
-43,
-27,
21,
-37,
20,
14,
-62,
11,
-48,
52,
1,
-53,
-51,
18,
-38,
-8,
21,
29,
41,
-28,
0,
-17,
0,
40,
18,
-21,
-16,
18,
-23,
6,
42,
24,
10,
44,
-63,
25,
-43,
-51,
19,
-43,
-27,
-42,
54,
-70,
1,
-16,
-22,
2,
-17,
-36,
24,
18,
101,
-97,
-1,
29,
26,
55,
80,
-10,
-43,
19,
40,
61,
79,
8,
20,
51,
14,
-24,
64,
-50,
52,
-19,
71,
-30,
-37,
46,
-8,
27,
-10,
17,
18,
38,
36,
-59,
-60,
81,
-49,
-48,
28,
1,
-58,
-10,
41,
-61,
5,
14,
-48,
-43,
49,
-6,
-39,
-9,
-29,
14,
19,
36,
5,
62,
13,
21,
0,
-76,
-7,
48,
16,
-54,
-68,
66,
76,
66,
4,
3,
-21,
33,
8,
61,
-47,
-31,
-7,
-34,
40,
65,
-4,
-44,
12,
-20,
-37,
4,
-40,
32,
52,
30,
-47,
-34,
37,
20,
-20,
-10,
68,
50,
-46,
-21,
-45,
-11,
-89,
-53,
64,
33,
-39,
19,
28,
39,
46,
-98,
11,
-51,
-14,
5,
2,
0,
14,
-26,
5,
40,
33,
46,
-23,
-56,
44,
18,
-25,
43,
12,
17,
67,
-59,
-62,
28,
62,
19,
23,
-43,
69,
-21,
18,
12,
-17,
11,
44,
-7,
96,
-10,
-46,
27,
-75,
30,
75,
-43,
21,
73,
-75,
-12,
-18,
1,
-6,
4,
-22,
-40,
46,
-9,
42,
-57,
9,
-18,
-31,
56,
-66,
-42,
35,
-12,
-39,
-40,
-10,
3,
22,
-53,
-28,
66,
45,
-88,
-11,
51,
-51,
31,
3,
38,
64,
-60,
26,
42,
-29,
57,
2,
39,
-34,
-36,
34,
27,
-44,
-34,
3,
-10,
-17,
19,
41,
-3,
-36,
-2,
8,
-3,
32,
-7,
49,
-19,
-28,
16,
26,
-15,
84,
-49,
16,
30,
49,
13,
4,
-41,
-13,
-48,
-13,
-7,
-23,
-14,
42,
-65,
43,
-6,
-62,
24,
75,
4,
-43,
-53,
-29,
-38,
17,
-2,
40,
-67,
-40,
41,
-10,
-80,
-78,
81,
-7,
-8,
9,
20,
-10,
-72,
11,
38,
-22,
42,
-17,
-39,
13,
-21,
-19,
-21,
-35,
-18,
-59,
-40,
-21,
-29,
-29,
50,
-41,
71,
5,
64,
57,
-41,
32,
45,
22,
-67,
3,
35,
-8,
8,
-68,
-41,
-20,
53,
102,
82,
88,
10,
-48,
0,
23,
41,
1,
30,
-62,
-14,
3,
19,
3,
-26,
-34,
-42,
-5,
-40,
0,
18,
-38,
87,
-42,
-18,
-119,
-5,
20,
4,
20,
18,
83,
38,
-46,
-40,
-17,
-70,
13,
-7,
89,
-14,
30,
-68,
53,
44,
31,
65,
24,
1,
-1,
9,
-75,
-5,
49,
42,
16,
24,
52,
38,
18,
3,
76,
-6,
31,
67,
-19,
-92,
-13,
-6,
34,
-22,
20,
-37,
-27,
-7,
-21,
48,
-44,
-25,
72,
-51,
-23,
-93,
20,
8,
-51,
8,
50,
-19,
-3,
33,
5,
-28,
-73,
-47,
-11,
5,
73,
-26,
-19,
-34,
18,
64,
10,
-25,
-12,
-1,
-17,
40,
-28,
-37,
104,
47,
-42,
3,
-38,
-18,
-10,
11,
2,
74,
38,
27,
-64,
6,
40,
9,
14,
-50,
47,
-10,
60,
21,
12,
26,
14,
48,
-38,
-19,
-14,
22,
-85,
9,
19,
-17,
24,
-27,
33,
-13,
-2,
-37,
-26,
10,
-11,
-30,
-45,
-17,
-14,
-7,
21,
-6,
20,
-26,
3,
70,
62,
-37,
16,
-3,
6,
-32,
-22,
47,
-21,
-7,
39,
55,
-3,
22,
-16,
29,
-16,
-5,
26,
22,
-14,
-23,
16,
-15,
27,
-78,
-29,
0,
-48,
-60,
35,
38,
-3,
35,
59,
-14,
-46,
-30,
63,
-39,
-24,
63,
-51,
-25,
-24,
35,
-61,
48,
33,
-45,
5,
7,
-9,
114,
-14,
41,
-30,
-48,
-40,
-21,
40,
-9,
35,
-44,
-40,
56,
38,
2,
30,
63,
-58,
-90,
63,
-49,
-38,
33,
74,
10,
16,
2,
-19,
21,
-10,
-3,
-22,
-61,
-15,
19,
4,
-83,
-45,
-45,
29,
-73,
-13,
47,
-60,
21,
-11,
17,
-45,
-11,
-7,
-36,
46,
55,
30,
-20,
21,
-86,
15,
-57,
-21,
-82,
20,
63,
64,
-17,
42,
53,
48,
58,
23,
35,
-28,
39,
3,
50,
29,
87,
47,
-11,
10,
63,
-18,
12,
-20,
13,
-20,
22,
25,
-31,
1,
-42,
-15,
-28,
3,
-39,
-29,
-67,
-30,
26,
15,
-21,
98,
-13,
4,
-19,
-49,
30,
-86,
84,
-36,
-31,
-15,
-32,
37,
-23,
4,
-18,
41,
-2,
14,
21,
48,
-20,
-32,
33,
36,
-39,
33,
-8,
-41,
-53,
-82,
-47,
35,
31,
41,
39,
8,
-81,
-31,
-16,
-1,
2,
51,
-2,
80,
-8,
41,
36,
-95,
-49,
-39,
-61,
-43,
-27,
40,
1,
14,
-107,
-7,
-16,
15,
40,
22,
-25,
14,
7,
-48,
-3,
64,
10,
33,
5,
-22,
-15,
-49,
16,
-7,
14,
-11,
-4,
-27,
-10,
-65,
-23,
83,
-74,
-39,
-47,
-36,
7,
37,
-65,
-28,
-81,
47,
28,
-63,
27,
38,
-11,
-7,
23,
-37,
7,
60,
-27,
25,
-20,
27,
63,
-30,
-3,
25,
-60,
28,
-10,
37,
68,
-56,
26,
-4,
15,
-79,
-6,
-1,
75,
-41,
-27,
-19,
-13,
61,
-102,
-11,
67,
2,
-9,
22,
-9,
-67,
-18,
-21,
-42,
68,
-40,
-20,
-3,
-26,
-80,
-1,
50,
-25,
-14,
-22,
72,
-27,
12,
-43,
-10,
21,
13,
33,
25,
58,
-30,
35,
8,
53,
57,
-87,
19,
-66,
22,
-82,
7,
51,
-44,
22,
-81,
20,
-25,
36,
8,
29,
60,
-52,
61,
-78,
60,
25,
42,
30,
-34,
-20,
6,
-70,
-18,
-6,
-36,
-25,
-27,
76,
65,
3,
-34,
30,
-4,
-38,
-5,
-5,
7,
25,
10,
31,
-11,
43,
-20,
-14,
20,
43,
6,
-18,
-14,
22,
37,
40,
51,
14,
-20,
22,
30,
-12,
35,
81,
-12,
26,
-40,
13,
23,
-64,
70,
37,
-44,
-14,
0,
-6,
19,
-57,
-53,
17,
47,
5,
-55,
8,
5,
-31,
20,
15,
9,
-3,
-25,
-41,
-55,
67,
66,
-6,
7,
-29,
-11,
-57,
82,
4,
-45,
31,
27,
10,
-51,
-33,
72,
-57,
64,
4,
46,
68,
2,
-45,
21,
45,
-15,
28,
64,
-8,
-5,
-51,
-44,
-25,
-28,
-16,
24,
12,
-18,
68,
37,
-29,
66,
-32,
34,
-64,
53,
-6,
-46,
14,
-2,
94,
14,
-4,
-15,
-25,
-12,
5,
-77,
50,
-15,
-46,
-24,
48,
28,
51,
33,
9,
2,
25,
44,
-61,
-13,
31,
-29,
-39,
3,
102,
69,
-6,
-72,
54,
-33,
80,
53,
-1,
-24,
82,
5,
2,
-8,
41,
13,
-30,
-18,
16,
38,
-24,
26,
58,
-5,
1,
-24,
35,
-44,
17,
4,
16,
24,
-11,
23,
-11,
25,
-44,
30,
-4,
-23,
23,
-45,
-50,
-55,
25,
26,
12,
-83,
-6,
80,
7,
18,
12,
48,
17,
8,
-11,
-51,
-65,
-47,
36,
-10,
-32,
36,
74,
-24,
-22,
63,
45,
-18,
22,
61,
0,
7,
-39,
45,
15,
-26,
-11,
-1,
0,
-9,
20,
50,
-4,
54,
-36,
10,
-53,
41,
-4,
-33,
-24,
16,
37,
-39,
-31,
-34,
42,
-93,
-25,
58,
45,
-25,
18,
-21,
-12,
51,
-5,
66,
-54,
-25,
-32,
48,
-26,
-34,
29,
28,
43,
-28,
45,
58,
-70,
-28,
71,
-9,
9,
3,
-36,
-54,
48,
-14,
-9,
-11,
0,
12,
11,
-56,
-75,
84,
6,
-42,
18,
-5,
-5,
-26,
-37,
27,
-24,
50,
34,
-49,
-9,
18,
11,
1,
-50,
-20,
-63,
20,
17,
-111,
-11,
-8,
24,
69,
58,
-40,
54,
-19,
-16,
-1,
-9,
-29,
81,
-9,
-27,
19,
-19,
8,
-12,
35,
44,
-18,
-51,
-5,
57,
-38,
-13,
43,
-37,
-28,
48,
58,
-75,
-54,
-21,
11,
55,
-38,
20,
65,
8,
-37,
10,
34,
41,
-1,
67,
-53,
-27,
54,
-67,
37,
-10,
-33,
19,
32,
-13,
-8,
-46,
67,
-24,
-12,
-23,
-36,
20,
-15,
-85,
10,
30,
-51,
-22,
33,
66,
61,
26,
11,
-16,
-32,
-72,
-51,
-30,
42,
-37,
76,
-35,
-2,
29,
84,
10,
-51,
38,
42,
63,
-4,
47,
-14,
51,
-33,
70,
2,
-82,
40,
-5,
26,
-66,
73,
-11,
0,
-8,
17,
22,
5,
56,
20,
12,
32,
52,
10,
-18,
-13,
30,
-56,
3,
33,
45,
-35,
10,
-3,
5,
-25,
-42,
-8,
-43,
-82,
34,
-27,
34,
57,
-15,
44,
68,
-22,
-53,
-41,
38,
5,
15,
-38,
11,
-19,
-8,
32,
17,
-2,
-29,
27,
-3,
-19,
-2,
14,
59,
-9,
61,
-72,
-4,
14,
29,
45,
-4,
-9,
42,
-33,
-25,
-10,
11,
45,
52,
17,
11,
-24,
-67,
-45,
-49,
-18,
8,
-73,
5,
7,
-53,
-17,
-2,
-28,
-24,
-41,
6,
-73,
-68,
-15,
-54,
-65,
64,
22,
20,
-5,
36,
-20,
-7,
41,
10,
42,
-25,
13,
12,
-55,
-43,
36,
-23,
9,
-32,
16,
-103,
-49,
28,
4,
-13,
-19,
55,
-63,
-30,
36,
-19,
-18,
-39,
-65,
-38,
32,
-44,
-30,
16,
-43,
-67,
-38,
21,
25,
-36,
34,
-15,
-26,
-52,
-26,
51,
-32,
-93,
38,
16,
32,
-43,
-17,
15,
-8,
-15,
-47,
-27,
-4,
20,
-3,
-6,
-50,
-14,
-1,
-3,
16,
19,
-19,
-2,
-76,
-9,
64,
15,
-12,
20,
-60,
37,
-65,
-16,
33,
53,
-31,
11,
45,
15,
41,
-25,
-28,
75,
-93,
-19,
35,
39,
39,
-64,
65,
4,
39,
-55,
-46,
-50,
-32,
30,
13,
29,
42,
58,
39,
-23,
-1,
-29,
-63,
-53,
-26,
-53,
-16,
-43,
-25,
-38,
-21,
-17,
70,
20,
-9,
19,
46,
8,
-50,
-61,
23,
19,
-75,
53,
-52,
9,
20,
9,
56,
-8,
-64,
-9,
-14,
3,
-12,
-11,
61,
41,
28,
42,
-18,
-26,
-1,
-62,
16,
32,
22,
-8,
-47,
-61,
-14,
-17,
63,
-33,
-25,
12,
23,
-64,
-65,
86,
-6,
44,
-9,
-8,
-20,
4,
34,
-46,
10,
-78,
58,
-55,
-28,
36,
-26,
41,
-32,
63,
30,
-10,
-12,
4,
59,
-89,
-39,
-16,
9,
4,
-24,
8,
-29,
33,
-33,
-79,
-72,
22,
17,
4,
66,
5,
31,
-57,
-20,
-5,
53,
-17,
-45,
30,
-37,
-42,
-37,
-19,
64,
-16,
-5,
-108,
-43,
-43,
-29,
-21,
-14,
29,
-8,
5,
8,
-29,
29,
-41,
3,
22,
-22,
-69,
-33,
-26,
23,
61,
-70,
-44,
19,
2,
-5,
-27,
14,
-55,
-11,
-20,
21,
14,
-13,
-77,
-90,
56,
24,
-7,
-56,
-37,
74,
-84,
-41,
18,
-4,
-24,
-68,
-25,
5,
42,
58,
-19,
29,
31,
34,
32,
0,
95,
-69,
28,
13,
-26,
-38,
28,
15,
39,
-91,
49,
-12,
3,
-35,
13,
58,
57,
-11,
20,
70,
-46,
-27,
-4,
25,
23,
-10,
71,
-56,
50,
-27,
-27,
66,
-37,
-61,
-31,
-16,
27,
50,
3,
-77,
10,
75,
-18,
-48,
-21,
-16,
-18,
-28,
-40,
25,
-4,
-31,
14,
9,
-48,
35,
2,
63,
-104,
-30,
21,
3,
44,
22,
51,
31,
-83,
88,
-43,
9,
-30,
-26,
-3,
-10,
-70,
43,
16,
0,
26,
4,
-40,
-25,
11,
4,
21,
-45,
-9,
-7,
41,
-58,
0,
38,
17,
65,
-53,
25,
-12,
36,
33,
48,
-17,
-69,
34,
-64,
10,
69,
13,
9,
26,
-39,
-41,
-4,
-9,
13,
62,
-60,
48,
-25,
-95,
-100,
38,
-15,
35,
32,
-7,
-17,
-29,
-3,
17,
35,
-33,
37,
-12,
-52,
-4,
4,
96,
-13,
40,
41,
-33,
-1,
-9,
-29,
-22,
-38,
3,
62,
-6,
-48,
-57,
20,
-31,
-38,
60,
57,
55,
16,
96,
-52,
-69,
-2,
25,
9,
-45,
-63,
44,
58,
3,
0,
-75,
9,
44,
32,
-8,
-13,
5,
-51,
-2,
-52,
-11,
0,
-11,
25,
-21,
-6,
49,
-24,
-3,
-49,
-6,
-4,
-2,
24,
19,
26,
-40,
2,
-1,
10,
7,
-54,
54,
2,
74,
-71,
62,
39,
61,
-88,
-15,
30,
-69,
-52,
50,
75,
19,
-15,
-43,
-26,
53,
53,
92,
-3,
56,
-20,
11,
-10,
19,
-68,
-24,
-14,
14,
-16,
37,
-58,
-19,
-3,
-8,
-29,
29,
-15,
27,
-1,
10,
-11,
19,
-26,
58,
59,
17,
-10,
40,
61,
25,
21,
-11,
9,
19,
-18,
-13,
42,
-14,
12,
19,
30,
-55,
-29,
-54,
-2,
-25,
-47,
57,
44,
6,
37,
-20,
-14,
-46,
-27,
24,
1,
-4,
-56,
55,
65,
4,
-51,
-61,
-41,
30,
-72,
64,
-26,
-12,
-58,
61,
6,
4,
-1,
-20,
30,
-41,
-6,
-41,
18,
39,
-89,
-43,
49,
93,
75,
41,
-23,
39,
-71,
83,
43,
7,
-60,
41,
-25,
0,
-19,
17,
-16,
-56,
-20,
38,
11,
2,
50,
35,
-37,
-12,
-1,
70,
-40,
29,
52,
-11,
33,
-4,
24,
-34,
18,
-55,
18,
-7,
-3,
3,
5,
-28,
-26,
9,
-23,
-22,
-68,
18,
73,
18,
8,
-32,
22,
48,
69,
-37,
-33,
-52,
-53,
2,
-66,
-78,
-64,
-73,
-6,
1,
-29,
62,
-44,
6,
4,
-15,
6,
-58,
-62,
-15,
-57,
-46,
-59,
-16,
-29,
-46,
-68,
46,
-23,
17,
-66,
14,
-43,
-20,
31,
27,
15,
-41,
-44,
29,
18,
-63,
27,
-22,
-53,
-18,
37,
-30,
43,
-1,
1,
-7,
27,
62,
25,
-37,
38,
-58,
-9,
40,
56,
36,
-13,
-74,
21,
51,
21,
-70,
-17,
17,
-44,
61,
5,
-78,
19,
55,
0,
47,
-92,
17,
42,
44,
-106,
16,
-19,
-45,
-37,
-8,
89,
-60,
-30,
-29,
-45,
60,
25,
54,
-11,
14,
20,
13,
3,
29,
-41,
-22,
-4,
67,
-24,
4,
14,
5,
-36,
-62,
-6,
-50,
19,
-33,
-16,
-4,
-1,
64,
-40,
39,
-34,
-47,
5,
-40,
13,
17,
-47,
20,
35,
63,
12,
-33,
-18,
-20,
9,
22,
21,
18,
23,
-5,
14,
27,
37,
24,
-1,
-22,
-37,
-29,
19,
-2,
16,
-50,
-17,
43,
-43,
32,
40,
16,
3,
-34,
44,
-22,
17,
21,
-83,
-6,
-24,
-7,
28,
-37,
47,
-80,
-64,
-56,
-9,
59,
22,
59,
-8,
22,
62,
50,
6,
8,
-10,
34,
-20,
27,
77,
-16,
-7,
0,
17,
17,
-75,
21,
15,
-43,
-66,
-23,
55,
-34,
70,
2,
-18,
-20,
-65,
-74,
41,
80,
53,
-50,
-106,
-60,
-55,
-33,
-36,
-4,
-77,
-33,
-24,
-6,
19,
-39,
-33,
6,
37,
32,
50,
8,
-60,
112,
-13,
54,
39,
28,
-7,
14,
-33,
-15,
64,
62,
6,
-25,
-30,
-20,
6,
5,
-73,
-17,
-25,
-14,
-87,
13,
-65,
72,
-5,
3,
-15,
-35,
5,
-26,
-71,
-78,
-43,
-26,
-73,
-56,
-43,
-32,
-14,
-36,
55,
66,
-15,
-76,
-23,
48,
38,
-54,
-37,
25,
-20,
11,
-13,
22,
33,
17,
50,
-23,
33,
77,
17,
-42,
-18,
-21,
26,
-6,
80,
64,
-12,
-35,
-82,
-7,
27,
-64,
40,
-19,
-67,
2,
-56,
-77,
6,
46,
-32,
-88,
8,
-27,
24,
-61,
1,
-27,
-4,
55,
4,
-40,
10,
-85,
-6,
-20,
-14,
-23,
-64,
50,
-3,
-30,
41,
49,
-32,
19,
-6,
-21,
32,
82,
108,
-5,
-47,
-3,
54,
-66,
-21,
27,
7,
-46,
35,
30,
-34,
45,
83,
34,
-43,
58,
29,
-15,
18,
64,
-12,
-26,
18,
59,
4,
-12,
36,
14,
12,
0,
-64,
5,
43,
-28,
26,
2,
-54,
47,
48,
-55,
0,
-18,
26,
-43,
-8,
-14,
-32,
-10,
-9,
88,
61,
6,
-13,
-54,
-2,
-19,
-37,
45,
3,
-63,
-70,
5,
-32,
35,
70,
12,
-23,
-41,
1,
-48,
27,
95,
-74,
39,
-6,
89,
67,
32,
-10,
25,
-62,
72,
58,
-14,
-52,
57,
-9,
18,
-19,
7,
0,
-26,
-72,
1,
7,
-74,
32,
25,
-6,
-42,
-9,
56,
-53,
22,
3,
-80,
1,
-68,
22,
-13,
-9,
-22,
-11,
8,
-33,
-4,
-2,
-32,
-94,
9,
29,
-61,
-50,
0,
48,
60,
-31,
9,
51,
8,
77,
56,
-23,
3,
-16,
71,
-52,
-28,
-21,
0,
-39,
-56,
3,
-10,
-26,
-13,
-10,
10,
50,
-44,
3,
-65,
1,
-56,
43,
4,
-38,
-9,
-46,
-17,
42,
-28,
-35,
-3,
9,
-54,
-75,
-47,
48,
39,
-36,
40,
-45,
59,
-5,
61,
34,
56,
-51,
37,
0,
-49,
36,
42,
87,
69,
-6,
-51,
57,
7,
31,
0,
-7,
39,
-69,
25,
-21,
-49,
-22,
49,
-2,
13,
-25,
-23,
38,
-31,
-67,
49,
6,
-7,
28,
32,
25,
-58,
2,
35,
-72,
-34,
-32,
41,
-46,
-8,
-36,
-69,
43,
80,
-29,
-56,
51,
17,
-45,
-45,
34,
-41,
23,
39,
-44,
12,
-12,
-56,
58,
43,
-14,
35,
21,
-15,
-64,
30,
-29,
21,
-40,
36,
11,
7,
5,
-72,
26,
34,
55,
-20,
-17,
35,
7,
-3,
11,
-21,
0,
-30,
-30,
-13,
-4,
-6,
52,
50,
0,
29,
40,
-2,
31,
46,
2,
65,
24,
39,
16,
4,
-15,
17,
-36,
12,
33,
-30,
56,
-61,
51,
-59,
-53,
-34,
-14,
-41,
30,
34,
-77,
-12,
-33,
-39,
-83,
43,
-92,
21,
-17,
35,
-64,
-83,
19,
44,
-30,
-8,
60,
-45,
19,
14,
44,
-13,
-23,
48,
-3,
11,
-69,
15,
-22,
10,
-30,
85,
-25,
-45,
94,
-29,
14,
-41,
-19,
54,
-1,
13,
-2,
-59,
-40,
30,
-36,
-33,
17,
-15,
-57,
57,
-28,
-73,
16,
-34,
6,
41,
-23,
9,
21,
8,
-87,
71,
6,
-21,
76,
-11,
45,
6,
-19,
11,
26,
41,
-50,
-10,
-16,
23,
-27,
16,
64,
63,
-6,
-48,
50,
-34,
-16,
-86,
-37,
-50,
84,
7,
-5,
-26,
42,
72,
-11,
25,
92,
-10,
61,
16,
63,
33,
-14,
-68,
4,
26,
29,
-75,
11,
31,
-13,
-39,
15,
44,
11,
-49,
-49,
22,
37,
15,
-48,
-16,
-76,
1,
-13,
24,
-48,
57,
-52,
14,
77,
36,
73,
17,
-24,
33,
31,
10,
83,
2,
71,
54,
5,
-40,
30,
117,
19,
55,
4,
51,
30,
7,
27,
-31,
7,
38,
-56,
28,
-25,
10,
0,
-35,
39,
-10,
-40,
17,
-7,
-49,
-29,
-20,
-28,
60,
-79,
-108,
-68,
-16,
49,
34,
-43,
8,
13,
27,
65,
-11,
-13,
-3,
20,
-78,
-62,
-64,
33,
-45,
-6,
-21,
47,
10,
-15,
-79,
62,
33,
20,
-48,
-19,
-37,
30,
22,
-16,
-49,
-71,
-7,
-31,
-27,
25,
11,
7,
-63,
37,
-21,
39,
-55,
-27,
27,
-23,
-43,
-36,
41,
32,
-7,
-38,
-42,
13,
-22,
-36,
24,
-54,
9,
36,
-20,
91,
-19,
38,
38,
51,
-3,
7,
-38,
5,
-16,
39,
56,
35,
70,
46,
-55,
7,
6,
-33,
25,
21,
-28,
-26,
4,
-57,
41,
-74,
0,
-14,
36,
-84,
-23,
9,
22,
-30,
106,
-35,
-65,
-45,
-16,
37,
-60,
62,
60,
-42,
-80,
11,
-5,
-1,
-39,
24,
0,
45,
0,
-46,
18,
-6,
-38,
62,
11,
-20,
7,
-23,
-12,
-21,
-2,
-13,
83,
45,
-3,
-44,
-1,
37,
-24,
-5,
35,
10,
32,
69,
-34,
10,
24,
-2,
-40,
-58,
13,
7,
54,
-8,
-43,
-41,
-2,
8,
-26,
14,
-1,
-58,
-50,
-29,
12,
48,
-5,
-46,
-61,
17,
29,
-26,
-6,
61,
27,
10,
-75,
90,
28,
1,
-47,
8,
-20,
26,
-55,
49,
-28,
2,
36,
-39,
13,
-39,
6,
89,
21,
5,
27,
39,
48,
-2,
11,
-4,
-52,
49,
-2,
62,
-28,
9,
14,
-50,
-3,
-47,
-1,
-49,
4,
-76,
75,
-73,
25,
64,
7,
24,
-19,
19,
51,
-55,
24,
38,
-99,
-24,
-52,
25,
33,
3,
40,
-22,
32,
-15,
-55,
96,
-28,
-50,
41,
-64,
-24,
-2,
-25,
40,
19,
-33,
21,
70,
17,
-38,
31,
-9,
45,
5,
-6,
-126,
-66,
-53,
-5,
20,
45,
-48,
-29,
11,
14,
-55,
42,
-25,
34,
-71,
-12,
7,
46,
17,
-55,
39,
-77,
-24,
-46,
26,
25,
-39,
68,
-31,
-39,
38,
29,
22,
-67,
10,
14,
59,
-35,
-2,
-19,
-39,
-17,
-32,
6,
17,
-18,
23,
24,
-38,
51,
-21,
-8,
6,
-2,
63,
7,
56,
15,
-27,
-29,
-18,
17,
48,
-67,
40,
-50,
-28,
-35,
9,
-87,
34,
16,
29,
-11,
-5,
79,
-7,
-31,
-53,
2,
-11,
-45,
47,
41,
48,
14,
22,
-52,
-2,
82,
-45,
25,
-9,
45,
69,
17,
60,
66,
-18,
9,
39,
44,
8,
57,
-64,
5,
-21,
-11,
-39,
30,
18,
10,
-22,
3,
17,
-8,
29,
-25,
-9,
-15,
38,
56,
22,
49,
-24,
-45,
-36,
32,
-16,
22,
12,
44,
-8,
22,
20,
-4,
-68,
-41,
-21,
-58,
-64,
-28,
57,
-50,
51,
-5,
-29,
-3,
-26,
-48,
41,
-10,
49,
0,
-8,
-20,
-63,
0,
-65,
28,
-75,
-4,
38,
24,
9,
18,
31,
19,
9,
75,
58,
-71,
53,
-46,
-19,
17,
78,
82,
50,
4,
-4,
-84,
-12,
-4,
20,
-28,
-3,
-16,
-5,
-25,
-12,
-6,
-68,
-2,
-34,
-10,
-55,
1,
46,
-17,
26,
80,
-24,
-39,
-8,
12,
43,
-61,
75,
10,
-36,
18,
-2,
-2,
55,
39,
3,
32,
34,
-36,
42,
56,
18,
-4,
-20,
-9,
-49,
46,
33,
22,
-59,
-82,
18,
80,
32,
8,
56,
32,
-70,
-12,
-26,
7,
-19,
2,
21,
76,
-56,
-5,
-39,
-22,
-7,
-19,
51,
16,
-26,
-12,
-97,
-12,
-55,
34,
55,
-16,
3,
90,
-27,
-3,
74,
-35,
1,
16,
18,
-15,
-21,
26,
-7,
-33,
-83,
47,
6,
1,
14,
-4,
15,
-45,
11,
14,
-5,
-78,
-2,
10,
27,
29,
31,
97,
-6,
-85,
34,
-6,
-1,
-52,
-31,
24,
-64,
-25,
-9,
-24,
-30,
56,
68,
-15,
4,
-77,
40,
26,
-22,
-19,
22,
27,
-29,
31,
41,
5,
33,
-55,
34,
18,
27,
-11,
11,
-9,
8,
26,
-36,
91,
-3,
-2,
41,
-31,
54,
-7,
-31,
28,
-30,
28,
-20,
7,
-25,
-92,
-8,
-56,
-4,
6,
26,
-58,
-68,
-17,
7,
44,
80,
-49,
44,
-56,
78,
80,
11,
-40,
21,
-14,
41,
0,
0,
37,
-86,
16,
31,
38,
30,
22,
3,
-48,
-78,
-24,
46,
-29,
34,
39,
-31,
-23,
-2,
10,
9,
41,
15,
25,
24,
9,
-11,
39,
-23,
-4,
-37,
-1,
-31,
70,
-53,
23,
6,
6,
-8,
-35,
-25,
-55,
-28,
-36,
9,
8,
71,
39,
36,
-22,
-17,
-18,
15,
56,
-14,
-36,
6,
-10,
-59,
4,
-26,
23,
-39,
-14,
29,
-18,
-96,
-20,
43,
-63,
32,
61,
-10,
-52,
-77,
2,
84,
-26,
8,
-42,
-104,
35,
-23,
-33,
57,
26,
-26,
-6,
-10,
-29,
-11,
20,
73,
-6,
31,
40,
17,
35,
-63,
42,
26,
-9,
-39,
17,
46,
-45,
56,
-40,
-42,
-6,
49,
94,
57,
83,
79,
-5,
-63,
-61,
17,
11,
-39,
34,
-32,
-43,
22,
46,
-1,
-13,
38,
-28,
-41,
-37,
9,
-76,
58,
19,
-43,
-40,
-42,
61,
23,
-10,
33,
20,
-13,
-2,
-17,
-36,
10,
-28,
-46,
48,
43,
24,
-50,
14,
71,
50,
-84,
18,
-70,
45,
5,
18,
-2,
40,
-20,
34,
46,
27,
34,
-50,
-15,
-12,
-3,
-31,
0,
-15,
-33,
32,
-60,
-59,
6,
-60,
30,
1,
-38,
21,
3,
-6,
-14,
50,
-3,
-7,
-3,
49,
26,
-32,
55,
-57,
9,
76,
36,
-26,
53,
37,
-14,
-7,
43,
-1,
-9,
23,
45,
-35,
-70,
35,
16,
-4,
10,
1,
-25,
-50,
-56,
57,
9,
-56,
73,
-50,
-46,
28,
-30,
32,
-4,
-23,
-20,
17,
47,
12,
2,
58,
47,
28,
-47,
-32,
18,
-51,
50,
-39,
60,
-11,
-48,
23,
53,
2,
29,
33,
-28,
-45,
-10,
-35,
-91,
-45,
-12,
30,
-29,
9,
-29,
7,
-18,
14,
-8,
27,
-7,
18,
-97,
5,
-10,
109,
51,
6,
37,
-41,
61,
-4,
-25,
57,
-48,
7,
-48,
5,
45,
48,
-10,
25,
-38,
65,
-9,
0,
-6,
30,
12,
38,
25,
40,
35,
-15,
9,
-32,
3,
23,
-38,
-40,
-71,
102,
41,
-10,
-38,
-42,
15,
20,
26,
-3,
34,
-52,
-74,
-72,
56,
-9,
-24,
-10,
-90,
-1,
-33,
-20,
55,
-15,
-10,
85,
40,
5,
-16,
18,
-42,
54,
-13,
51,
21,
0,
1,
-24,
11,
14,
-7,
-18,
-23,
15,
28,
-46,
14,
12,
-28,
-6,
-37,
3,
20,
7,
-13,
31,
-7,
15,
-28,
-1,
-16,
-14,
5,
-23,
-23,
9,
-64,
-2,
12,
17,
11,
2,
-5,
-4,
-17,
31,
-45,
-25,
72,
-58,
16,
2,
1,
-86,
-12,
-73,
-17,
57,
-7,
-79,
42,
35,
42,
-36,
39,
26,
-39,
10,
-47,
-38,
65,
-40,
54,
-41,
-35,
-7,
67,
-1,
-8,
58,
-27,
-3,
-51,
42,
-30,
-18,
22,
76,
44,
-20,
-1,
-7,
23,
-62,
27,
-53,
43,
-13,
-72,
17,
-4,
29,
-34,
13,
-11,
9,
31,
9,
-68,
59,
55,
-47,
71,
45,
-4,
37,
18,
59,
-33,
-79,
13,
59,
-45,
6,
9,
76,
36,
2,
-28,
23,
53,
81,
-12,
-10,
-21,
-35,
35,
-13,
-14,
-40,
-99,
46,
51,
44,
8,
19,
32,
-46,
-7,
-54,
103,
-21,
-23,
6,
-27,
-6,
-6,
63,
2,
5,
-14,
-4,
22,
28,
-63,
-48,
-28,
-67,
-57,
10,
0,
-21,
-28,
43,
37,
22,
-77,
-38,
-46,
47,
-32,
-30,
-47,
19,
18,
-45,
34,
26,
-22,
-27,
-29,
-23,
0,
0,
18,
0,
-59,
57,
19,
-39,
-9,
-46,
50,
-1,
-77,
-11,
68,
-47,
37,
78,
-8,
-52,
17,
78,
44,
-1,
78,
-19,
0,
91,
17,
-59,
34,
31,
-23,
25,
15,
-58,
76,
36,
50,
-12,
-62,
24,
-9,
4,
15,
-18,
45,
-48,
-12,
40,
32,
-10,
57,
-32,
-91,
40,
-48,
9,
17,
13,
-4,
68,
0,
8,
87,
-29,
63,
1,
-21,
-68,
-11,
-14,
59,
92,
-64,
-11,
-9,
-31,
-1,
75,
-11,
37,
67,
38,
53,
42,
64,
0,
-8,
37,
-43,
-67,
81,
45,
-29,
-53,
21,
36,
-64,
21,
-14,
27,
-19,
-58,
-48,
-85,
-48,
2,
-65,
37,
6,
-25,
28,
-81,
30,
-43,
2,
3,
16,
24,
27,
-33,
-20,
50,
6,
19,
38,
6,
-9,
11,
31,
14,
-56,
5,
4,
-10,
49,
-4,
14,
-8,
-9,
-10,
93,
-5,
16,
-28,
-54,
11,
-81,
23,
-16,
-41,
2,
-38,
-12,
26,
-65,
3,
49,
36,
11,
58,
4,
-30,
-68,
15,
96,
51,
-32,
-1,
-11,
-92,
-66,
-3,
41,
35,
85,
58,
-22,
-46,
-47,
-34,
48,
35,
-35,
43,
22,
-4,
-14,
45,
50,
-19,
65,
13,
53,
48,
30,
34,
-9,
25,
-36,
16,
26,
40,
45,
22,
-45,
-36,
14,
-21,
-12,
2,
35,
18,
-35,
-25,
8,
-25,
-22,
-7,
-14,
8,
-33,
57,
-63,
-62,
-22,
56,
-8,
26,
-55,
37,
-128,
-79,
-16,
47,
46,
65,
-29,
54,
-2,
63,
-21,
-37,
19,
65,
-7,
-37,
51,
42,
33,
-14,
33,
2,
15,
-32,
41,
-58,
-27,
30,
13,
44,
-46,
23,
-20,
-8,
60,
-26,
36,
-18,
-14,
-16,
-46,
-17,
8,
26,
-73,
-59,
-78,
-47,
0,
-33,
-27,
16,
3,
-41,
17,
34,
25,
9,
-12,
-35,
-59,
-38,
39,
-41,
-10,
-26,
77,
52,
11,
45,
-46,
5,
45,
10,
-44,
40,
-45,
-35,
20,
60,
68,
44,
-69,
3,
28,
-68,
51,
-45,
35,
48,
25,
30,
-3,
20,
76,
35,
-19,
10,
-14,
-35,
10,
-3,
38,
-58,
-43,
-14,
6,
-68,
36,
22,
-4,
-26,
-95,
7,
-108,
36,
-53,
29,
-24,
-14,
-27,
-67,
71,
-1,
-22,
24,
23,
-14,
35,
25,
-27,
49,
-29,
22,
5,
-44,
-46,
-4,
-21,
45,
-56,
43,
56,
-44,
2,
-67,
33,
-16,
11,
37,
86,
1,
-3,
-21,
-1,
87,
-80,
-25,
45,
38,
-11,
18,
-1,
-65,
1,
-57,
-14,
18,
-48,
5,
29,
-44,
-34,
-16,
63,
-52,
-33,
-50,
-11,
-30,
32,
-31,
-35,
38,
17,
47;
